{
  "version": "1.0",
  "truncation": null,
  "padding": null,
  "added_tokens": [
    {
      "id": 0,
      "content": "[PAD]",
      "single_word": false,
      "lstrip": false,
      "rstrip": false,
      "normalized": false,
      "special": true
    },
    {
      "id": 1,
      "content": "[UNK]",
      "single_word": false,
      "lstrip": false,
      "rstrip": false,
      "normalized": false,
      "special": true
    },
    {
      "id": 2,
      "content": "[EOS]",
      "single_word": false,
      "lstrip": false,
      "rstrip": false,
      "normalized": false,
      "special": true
    },
    {
      "id": 3,
      "content": "[Q]",
      "single_word": false,
      "lstrip": false,
      "rstrip": false,
      "normalized": false,
      "special": true
    },
    {
      "id": 4,
      "content": "[R]",
      "single_word": false,
      "lstrip": false,
      "rstrip": false,
      "normalized": false,
      "special": true
    },
    {
      "id": 5,
      "content": "[A]",
      "single_word": false,
      "lstrip": false,
      "rstrip": false,
      "normalized": false,
      "special": true
    }
  ],
  "normalizer": null,
  "pre_tokenizer": {
    "type": "Sequence",
    "pretokenizers": [
      {
        "type": "Metaspace",
        "replacement": " ",
        "prepend_scheme": "never",
        "split": true
      },
      {
        "type": "Digits",
        "individual_digits": true
      },
      {
        "type": "Split",
        "pattern": {
          "Regex": "\\\\[a-zA-Z]+"
        },
        "behavior": "Isolated",
        "invert": false
      }
    ]
  },
  "post_processor": null,
  "decoder": {
    "type": "Metaspace",
    "replacement": " ",
    "prepend_scheme": "never",
    "split": true
  },
  "model": {
    "type": "BPE",
    "dropout": null,
    "unk_token": "[UNK]",
    "continuing_subword_prefix": null,
    "end_of_word_suffix": null,
    "fuse_unk": false,
    "byte_fallback": false,
    "ignore_merges": false,
    "vocab": {
      "[PAD]": 0,
      "[UNK]": 1,
      "[EOS]": 2,
      "[Q]": 3,
      "[R]": 4,
      "[A]": 5,
      "\n": 6,
      " ": 7,
      "!": 8,
      "\"": 9,
      "#": 10,
      "$": 11,
      "%": 12,
      "&": 13,
      "'": 14,
      "(": 15,
      ")": 16,
      "*": 17,
      "+": 18,
      ",": 19,
      "-": 20,
      ".": 21,
      "/": 22,
      "0": 23,
      "1": 24,
      "2": 25,
      "3": 26,
      "4": 27,
      "5": 28,
      "6": 29,
      "7": 30,
      "8": 31,
      "9": 32,
      ":": 33,
      ";": 34,
      "<": 35,
      "=": 36,
      ">": 37,
      "?": 38,
      "@": 39,
      "A": 40,
      "B": 41,
      "C": 42,
      "D": 43,
      "E": 44,
      "F": 45,
      "G": 46,
      "H": 47,
      "I": 48,
      "J": 49,
      "K": 50,
      "L": 51,
      "M": 52,
      "N": 53,
      "O": 54,
      "P": 55,
      "Q": 56,
      "R": 57,
      "S": 58,
      "T": 59,
      "U": 60,
      "V": 61,
      "W": 62,
      "X": 63,
      "Y": 64,
      "Z": 65,
      "[": 66,
      "\\": 67,
      "]": 68,
      "^": 69,
      "_": 70,
      "`": 71,
      "a": 72,
      "b": 73,
      "c": 74,
      "d": 75,
      "e": 76,
      "f": 77,
      "g": 78,
      "h": 79,
      "i": 80,
      "j": 81,
      "k": 82,
      "l": 83,
      "m": 84,
      "n": 85,
      "o": 86,
      "p": 87,
      "q": 88,
      "r": 89,
      "s": 90,
      "t": 91,
      "u": 92,
      "v": 93,
      "w": 94,
      "x": 95,
      "y": 96,
      "z": 97,
      "{": 98,
      "|": 99,
      "}": 100,
      "~": 101,
      "": 102,
      "": 103,
      "": 104,
      " ": 105,
      "¡": 106,
      "¢": 107,
      "£": 108,
      "¤": 109,
      "¥": 110,
      "¦": 111,
      "¨": 112,
      "©": 113,
      "ª": 114,
      "«": 115,
      "¬": 116,
      "­": 117,
      "¯": 118,
      "°": 119,
      "±": 120,
      "²": 121,
      "³": 122,
      "´": 123,
      "µ": 124,
      "·": 125,
      "¸": 126,
      "¹": 127,
      "º": 128,
      "»": 129,
      "¼": 130,
      "½": 131,
      "¾": 132,
      "¿": 133,
      "×": 134,
      "à": 135,
      "á": 136,
      "â": 137,
      "ã": 138,
      "æ": 139,
      "ç": 140,
      "è": 141,
      "é": 142,
      "ê": 143,
      "í": 144,
      "î": 145,
      "ï": 146,
      "ñ": 147,
      "÷": 148,
      "ø": 149,
      "ý": 150,
      "đ": 151,
      "œ": 152,
      "š": 153,
      "ƒ": 154,
      "ƞ": 155,
      "ƫ": 156,
      "ɵ": 157,
      "ʼ": 158,
      "ˆ": 159,
      "˜": 160,
      ";": 161,
      "α": 162,
      "δ": 163,
      "θ": 164,
      "π": 165,
      "ρ": 166,
      "φ": 167,
      "ϕ": 168,
      "А": 169,
      "а": 170,
      "в": 171,
      "е": 172,
      "с": 173,
      "т": 174,
      "у": 175,
      "ў": 176,
      "ẹ": 177,
      "ổ": 178,
      " ": 179,
      "​": 180,
      "–": 181,
      "—": 182,
      "‘": 183,
      "’": 184,
      "‚": 185,
      "“": 186,
      "”": 187,
      "„": 188,
      "‟": 189,
      "†": 190,
      "‡": 191,
      "•": 192,
      "…": 193,
      " ": 194,
      "‰": 195,
      "′": 196,
      "‹": 197,
      "›": 198,
      "⁄": 199,
      "⁰": 200,
      "⁴": 201,
      "⁵": 202,
      "⁶": 203,
      "⁷": 204,
      "⁸": 205,
      "₁": 206,
      "₂": 207,
      "₃": 208,
      "€": 209,
      "₹": 210,
      "™": 211,
      "↑": 212,
      "→": 213,
      "↓": 214,
      "⇒": 215,
      "⇔": 216,
      "∆": 217,
      "∈": 218,
      "∏": 219,
      "∑": 220,
      "−": 221,
      "∗": 222,
      "∘": 223,
      "√": 224,
      "∛": 225,
      "∝": 226,
      "∞": 227,
      "∠": 228,
      "∣": 229,
      "∥": 230,
      "∩": 231,
      "∪": 232,
      "∴": 233,
      "∵": 234,
      "∷": 235,
      "∼": 236,
      "≃": 237,
      "≈": 238,
      "≠": 239,
      "≡": 240,
      "≤": 241,
      "≥": 242,
      "⋅": 243,
      "⋯": 244,
      "⌈": 245,
      "⌉": 246,
      "⎫": 247,
      "⎬": 248,
      "⎭": 249,
      "♠": 250,
      "": 251,
      "": 252,
      "": 253,
      "": 254,
      "": 255,
      "": 256,
      "�": 257,
      "🙂": 258,
      " t": 259,
      "he": 260,
      " a": 261,
      " the": 262,
      " o": 263,
      "in": 264,
      "er": 265,
      " s": 266,
      " =": 267,
      " of": 268,
      "re": 269,
      "is": 270,
      " w": 271,
      " c": 272,
      " b": 273,
      "at": 274,
      " [": 275,
      "es": 276,
      " p": 277,
      " $": 278,
      " an": 279,
      " m": 280,
      " f": 281,
      " is": 282,
      "an": 283,
      "al": 284,
      "on": 285,
      " d": 286,
      "en": 287,
      " h": 288,
      " to": 289,
      " .": 290,
      " +": 291,
      " x": 292,
      " in": 293,
      "le": 294,
      " -": 295,
      "or": 296,
      "it": 297,
      "ed": 298,
      "ar": 299,
      "ac": 300,
      " e": 301,
      " n": 302,
      " and": 303,
      " th": 304,
      "ou": 305,
      " (": 306,
      "um": 307,
      " /": 308,
      "ing": 309,
      "et": 310,
      "as": 311,
      ".\n": 312,
      " ,": 313,
      "ow": 314,
      " g": 315,
      "ion": 316,
      "ic": 317,
      "ot": 318,
      "il": 319,
      " we": 320,
      "ve": 321,
      " r": 322,
      " [A": 323,
      "EO": 324,
      "[Q": 325,
      "R]": 326,
      "S]": 327,
      " [EO": 328,
      " [R]": 329,
      " [A]": 330,
      " [EOS]": 331,
      "ber": 332,
      "om": 333,
      "The": 334,
      " *": 335,
      " )": 336,
      " l": 337,
      "umber": 338,
      " re": 339,
      "qu": 340,
      "ol": 341,
      "id": 342,
      "im": 343,
      "st": 344,
      "wer": 345,
      " ans": 346,
      "ent": 347,
      " v": 348,
      " for": 349,
      " answer": 350,
      "ay": 351,
      " are": 352,
      "ir": 353,
      " number": 354,
      " wh": 355,
      "rac": 356,
      "iv": 357,
      " on": 358,
      "ig": 359,
      " be": 360,
      " that": 361,
      " :": 362,
      "ut": 363,
      " y": 364,
      " he": 365,
      "ce": 366,
      "if": 367,
      " pr": 368,
      "tal": 369,
      " total": 370,
      "frac": 371,
      " can": 372,
      " by": 373,
      "ue": 374,
      "}{": 375,
      "\\frac": 376,
      " u": 377,
      "ation": 378,
      " per": 379,
      " so": 380,
      "ec": 381,
      "ra": 382,
      "ly": 383,
      "os": 384,
      " k": 385,
      "ach": 386,
      " st": 387,
      " val": 388,
      "ore": 389,
      "our": 390,
      "ill": 391,
      "ak": 392,
      "##": 393,
      "ers": 394,
      " ?": 395,
      "ab": 396,
      " value": 397,
      "ge": 398,
      " as": 399,
      "oun": 400,
      " co": 401,
      "el": 402,
      "ad": 403,
      "th": 404,
      "ul": 405,
      "eed": 406,
      "ri": 407,
      " equ": 408,
      "ver": 409,
      " at": 410,
      " \"": 411,
      "am": 412,
      " each": 413,
      "<<": 414,
      ">>": 415,
      "ain": 416,
      " man": 417,
      "ht": 418,
      ");": 419,
      " has": 420,
      " sp": 421,
      " what": 422,
      "est": 423,
      " pro": 424,
      "ave": 425,
      "\\c": 426,
      " day": 427,
      " le": 428,
      " it": 429,
      " %": 430,
      "ct": 431,
      "eg": 432,
      "}$": 433,
      " hour": 434,
      "pl": 435,
      "ch": 436,
      "ter": 437,
      " fr": 438,
      "ds": 439,
      " al": 440,
      ".\nThe": 441,
      " if": 442,
      " The": 443,
      ":\n": 444,
      " many": 445,
      " will": 446,
      "ice": 447,
      "s,": 448,
      "If": 449,
      " tw": 450,
      ");\n": 451,
      "ur": 452,
      "ind": 453,
      " have": 454,
      " sol": 455,
      " from": 456,
      "\\b": 457,
      " tim": 458,
      "ight": 459,
      " bot": 460,
      "her": 461,
      "\nThe": 462,
      "ate": 463,
      "ts": 464,
      " A": 465,
      "ith": 466,
      " equation": 467,
      "all": 468,
      " W": 469,
      "ox": 470,
      "'s": 471,
      " sid": 472,
      " how": 473,
      "ive": 474,
      " S": 475,
      " then": 476,
      "res": 477,
      " or": 478,
      "ich": 479,
      " T": 480,
      "ear": 481,
      "ks": 482,
      " get": 483,
      "mat": 484,
      "us": 485,
      " com": 486,
      " min": 487,
      "now": 488,
      " both": 489,
      " with": 490,
      "dot": 491,
      "ount": 492,
      " she": 493,
      "ine": 494,
      " which": 495,
      " un": 496,
      " giv": 497,
      "ple": 498,
      " ch": 499,
      "end": 500,
      "ents": 501,
      "\\s": 502,
      " cost": 503,
      " H": 504,
      "$,": 505,
      " <<": 506,
      " year": 507,
      " int": 508,
      " wor": 509,
      " con": 510,
      " there": 511,
      "un": 512,
      " is:": 513,
      "age": 514,
      "ble": 515,
      " need": 516,
      " two": 517,
      " find": 518,
      " do": 519,
      " sec": 520,
      " than": 521,
      " \\": 522,
      "ang": 523,
      " this": 524,
      " sh": 525,
      "rt": 526,
      "ld": 527,
      "ub": 528,
      " div": 529,
      "are": 530,
      " If": 531,
      " inc": 532,
      " one": 533,
      " tak": 534,
      " mon": 535,
      " j": 536,
      "irst": 537,
      " sides": 538,
      "ist": 539,
      "--": 540,
      "ud": 541,
      " ^": 542,
      "ies": 543,
      "\\cdot": 544,
      "fore": 545,
      " pl": 546,
      " ex": 547,
      " mu": 548,
      " $x": 549,
      "qrt": 550,
      " his": 551,
      " >": 552,
      " minut": 553,
      " hours": 554,
      "oo": 555,
      "ag": 556,
      " me": 557,
      "ft": 558,
      " given": 559,
      " M": 560,
      " &": 561,
      "\\t": 562,
      "),": 563,
      " rs": 564,
      "ip": 565,
      " first": 566,
      " rem": 567,
      "ult": 568,
      " J": 569,
      " am": 570,
      " time": 571,
      ".\nS": 572,
      " tra": 573,
      " all": 574,
      " work": 575,
      "\\sqrt": 576,
      " was": 577,
      "tion": 578,
      " days": 579,
      " C": 580,
      " qu": 581,
      " po": 582,
      "oxed": 583,
      "\\boxed": 584,
      "Number": 585,
      " whe": 586,
      "able": 587,
      " minutes": 588,
      " her": 589,
      "erm": 590,
      " pos": 591,
      "se": 592,
      " sum": 593,
      "art": 594,
      "irc": 595,
      " km": 596,
      " remain": 597,
      " B": 598,
      " secon": 599,
      " \\\\": 600,
      " mil": 601,
      "####": 602,
      "and": 603,
      "raw": 604,
      "ater": 605,
      "hat": 606,
      " solve": 607,
      " speed": 608,
      "ity": 609,
      " more": 610,
      "(x": 611,
      "$.": 612,
      ".\n####": 613,
      "les": 614,
      "eng": 615,
      "ari": 616,
      "ree": 617,
      "Let": 618,
      " integ": 619,
      " stud": 620,
      "oll": 621,
      "dd": 622,
      "We": 623,
      " amount": 624,
      " car": 625,
      "ex": 626,
      "verage": 627,
      ".$": 628,
      "ince": 629,
      "ould": 630,
      " What": 631,
      " divid": 632,
      " squ": 633,
      "ance": 634,
      " price": 635,
      "fter": 636,
      " average": 637,
      "pres": 638,
      " '": 639,
      "its": 640,
      "angle": 641,
      "cent": 642,
      " F": 643,
      "ey": 644,
      "\",": 645,
      " x,": 646,
      "rix": 647,
      " vari": 648,
      " years": 649,
      "ame": 650,
      " wee": 651,
      " dist": 652,
      "ast": 653,
      " fe": 654,
      "ick": 655,
      ",$": 656,
      "\\]": 657,
      " X": 658,
      "ase": 659,
      "ess": 660,
      "(\"": 661,
      "ength": 662,
      "nown": 663,
      "ph": 664,
      "ans": 665,
      " variable": 666,
      "known": 667,
      " unknown": 668,
      " up": 669,
      " se": 670,
      "\nT": 671,
      " pa": 672,
      " length": 673,
      "ong": 674,
      "ell": 675,
      "ant": 676,
      "matrix": 677,
      "io": 678,
      " ap": 679,
      " they": 680,
      " miles": 681,
      "act": 682,
      "der": 683,
      "ite": 684,
      " area": 685,
      "abel": 686,
      "{p": 687,
      " numbers": 688,
      "tain": 689,
      " percent": 690,
      " cl": 691,
      "refore": 692,
      "raw(": 693,
      "du": 694,
      " not": 695,
      "ack": 696,
      "ire": 697,
      "hes": 698,
      ")--": 699,
      " square": 700,
      " times": 701,
      "iz": 702,
      "ible": 703,
      " equal": 704,
      " tri": 705,
      "refore,": 706,
      "{pmatrix": 707,
      "ass": 708,
      "fer": 709,
      "ence": 710,
      "hb": 711,
      " set": 712,
      " How": 713,
      " ab": 714,
      "oug": 715,
      " us": 716,
      " know": 717,
      " dig": 718,
      " bu": 719,
      "oc": 720,
      " students": 721,
      "\\mat": 722,
      " week": 723,
      " rat": 724,
      "impl": 725,
      "abel(\"": 726,
      "we": 727,
      " after": 728,
      " mak": 729,
      " three": 730,
      " second": 731,
      " E": 732,
      "ie": 733,
      "^{": 734,
      "ows": 735,
      "day": 736,
      " mult": 737,
      "\\mathb": 738,
      " much": 739,
      " left": 740,
      "\\mathbf": 741,
      "up": 742,
      " when": 743,
      " pe": 744,
      " poin": 745,
      " distance": 746,
      "ere": 747,
      "draw(": 748,
      " let": 749,
      "av": 750,
      "op": 751,
      " same": 752,
      " op": 753,
      " ne": 754,
      "egin": 755,
      "{pmatrix}": 756,
      "\\[": 757,
      " add": 758,
      "ect": 759,
      "\\begin": 760,
      "implif": 761,
      "own": 762,
      " ratio": 763,
      "Let's": 764,
      "\\end": 765,
      " money": 766,
      " mar": 767,
      "ons": 768,
      "\\le": 769,
      "og": 770,
      "\\p": 771,
      " month": 772,
      "ove": 773,
      " water": 774,
      "ose": 775,
      "ap": 776,
      "In": 777,
      "ax": 778,
      "label(\"": 779,
      ")--(": 780,
      " sub": 781,
      " out": 782,
      "ract": 783,
      " D": 784,
      "));\n": 785,
      ")^": 786,
      " i": 787,
      " does": 788,
      " were": 789,
      " ear": 790,
      " x?": 791,
      "estion": 792,
      " bet": 793,
      " question": 794,
      "implify": 795,
      "$\",": 796,
      " sal": 797,
      "ther": 798,
      " train": 799,
      " dif": 800,
      " $a": 801,
      "ext": 802,
      " posit": 803,
      " produ": 804,
      "}$.": 805,
      "ome": 806,
      " boo": 807,
      " sc": 808,
      "s.": 809,
      "ween": 810,
      ".\nWe": 811,
      " between": 812,
      " differ": 813,
      "ign": 814,
      " comp": 815,
      "so": 816,
      "ure": 817,
      " had": 818,
      " remaining": 819,
      "oy": 820,
      "ople": 821,
      " res": 822,
      " P": 823,
      "alf": 824,
      " feet": 825,
      "ound": 826,
      "\n\\[": 827,
      " people": 828,
      " wr": 829,
      " met": 830,
      " take": 831,
      "ok": 832,
      "tract": 833,
      " their": 834,
      "for": 835,
      "inal": 836,
      "x^": 837,
      " positive": 838,
      "very": 839,
      " sell": 840,
      " cm": 841,
      ".\\]": 842,
      " bl": 843,
      " earn": 844,
      " ro": 845,
      " We": 846,
      " rate": 847,
      "\nTo": 848,
      "\n\n": 849,
      "ry": 850,
      " must": 851,
      " long": 852,
      "right": 853,
      "actor": 854,
      " get:": 855,
      "eterm": 856,
      " half": 857,
      " repres": 858,
      " .\"": 859,
      "ution": 860,
      " buy": 861,
      " z": 862,
      ")$": 863,
      " would": 864,
      " box": 865,
      " gre": 866,
      " hr": 867,
      " every": 868,
      " sm": 869,
      " its": 870,
      " other": 871,
      " only": 872,
      " run": 873,
      " bre": 874,
      " $<<": 875,
      "ace": 876,
      " incre": 877,
      "ples": 878,
      ":\n$": 879,
      " form": 880,
      "ren": 881,
      " integer": 882,
      "ish": 883,
      "blem": 884,
      " did": 885,
      " problem": 886,
      " new": 887,
      "lect": 888,
      " poss": 889,
      " factor": 890,
      " divis": 891,
      "te": 892,
      "ays": 893,
      " fl": 894,
      " less": 895,
      " integers": 896,
      "etermine": 897,
      " To": 898,
      " age": 899,
      "(-": 900,
      " sold": 901,
      " gr": 902,
      "otal": 903,
      "ility": 904,
      "led": 905,
      " br": 906,
      "ary": 907,
      "ought": 908,
      " them": 909,
      " su": 910,
      "ets": 911,
      "label(\"$": 912,
      "bab": 913,
      "ages": 914,
      " ×": 915,
      " above": 916,
      ".\nT": 917,
      " term": 918,
      "ues": 919,
      " inter": 920,
      " means": 921,
      "ial": 922,
      " twice": 923,
      " side": 924,
      "ounds": 925,
      " small": 926,
      " who": 927,
      "\\circ": 928,
      " foll": 929,
      " digit": 930,
      "ep": 931,
      " probab": 932,
      "ment": 933,
      " trave": 934,
      "ix": 935,
      " down": 936,
      ".\nTherefore,": 937,
      " needs": 938,
      " te": 939,
      " now": 940,
      " $A": 941,
      " make": 942,
      " but": 943,
      " multi": 944,
      " into": 945,
      " R": 946,
      " L": 947,
      " circ": 948,
      " probability": 949,
      " option": 950,
      "align": 951,
      "let": 952,
      "form": 953,
      " also": 954,
      "{align": 955,
      " dec": 956,
      "\nS": 957,
      " possible": 958,
      "ends": 959,
      " col": 960,
      " lit": 961,
      "ird": 962,
      " \\\\\n": 963,
      " cor": 964,
      " pounds": 965,
      "imes": 966,
      " prof": 967,
      " takes": 968,
      "line": 969,
      " $(": 970,
      " determine": 971,
      " bought": 972,
      " O": 973,
      "gs": 974,
      "ven": 975,
      "ard": 976,
      "ank": 977,
      " divide": 978,
      " weight": 979,
      "ens": 980,
      " N": 981,
      "\\pi": 982,
      " $n": 983,
      "arg": 984,
      " c\"": 985,
      "*}": 986,
      "ost": 987,
      " four": 988,
      "{align*}": 989,
      "ime": 990,
      " He": 991,
      "plan": 992,
      "\\cos": 993,
      " comple": 994,
      "\\left": 995,
      " bec": 996,
      " write": 997,
      " cr": 998,
      "ings": 999,
      "\\right": 1000,
      " cons": 1001,
      " par": 1002,
      "get": 1003,
      " b\"": 1004,
      "olate": 1005,
      "iply": 1006,
      " represents": 1007,
      " old": 1008,
      "ats": 1009,
      " spent": 1010,
      "one": 1011,
      "ob": 1012,
      " these": 1013,
      " a\"": 1014,
      " ball": 1015,
      " Th": 1016,
      "ile": 1017,
      " remainder": 1018,
      "ular": 1019,
      "es,": 1020,
      " $y": 1021,
      "ik": 1022,
      "od": 1023,
      "ff": 1024,
      "ars": 1025,
      "asy": 1026,
      "ants": 1027,
      " product": 1028,
      "ume": 1029,
      " cub": 1030,
      " gra": 1031,
      "ade": 1032,
      "oss": 1033,
      " inches": 1034,
      " ar": 1035,
      "press": 1036,
      " go": 1037,
      " triangle": 1038,
      ",-": 1039,
      " d\"": 1040,
      " solution": 1041,
      ")(": 1042,
      "\\sin": 1043,
      " part": 1044,
      "=<<": 1045,
      "other": 1046,
      " profit": 1047,
      "\nIf": 1048,
      " books": 1049,
      "per": 1050,
      " divided": 1051,
      " dr": 1052,
      "ize": 1053,
      " dis": 1054,
      "use": 1055,
      "\nNumber": 1056,
      "cc": 1057,
      "ition": 1058,
      "planation": 1059,
      "ild": 1060,
      "ased": 1061,
      " simplify": 1062,
      "eter": 1063,
      " $X": 1064,
      " {": 1065,
      " requ": 1066,
      "ls": 1067,
      " subtract": 1068,
      " third": 1069,
      " contain": 1070,
      "\\times": 1071,
      "asy]": 1072,
      " rece": 1073,
      " units": 1074,
      " G": 1075,
      "ning": 1076,
      "ange": 1077,
      "&=": 1078,
      "}}": 1079,
      " pair": 1080,
      " pi": 1081,
      " cand": 1082,
      " problem,": 1083,
      "ired": 1084,
      " points": 1085,
      " follows": 1086,
      " score": 1087,
      " no": 1088,
      " gives": 1089,
      " cal": 1090,
      " gall": 1091,
      "oh": 1092,
      " last": 1093,
      " point": 1094,
      " Number": 1095,
      " class": 1096,
      "\nx": 1097,
      "ces": 1098,
      "ta": 1099,
      " de": 1100,
      " em": 1101,
      " In": 1102,
      " comm": 1103,
      "pect": 1104,
      " kg": 1105,
      " $f": 1106,
      " pay": 1107,
      " difference": 1108,
      " inv": 1109,
      "ood": 1110,
      "air": 1111,
      " tr": 1112,
      " seconds": 1113,
      "\n$": 1114,
      ".\nSo": 1115,
      "ates": 1116,
      " orig": 1117,
      " play": 1118,
      "_{": 1119,
      " break": 1120,
      "ide": 1121,
      " q": 1122,
      "rect": 1123,
      "ors": 1124,
      " K": 1125,
      " <": 1126,
      " sl": 1127,
      " hen": 1128,
      " e\"": 1129,
      " pers": 1130,
      "ting": 1131,
      " kmph": 1132,
      "em": 1133,
      "\nWe": 1134,
      "over": 1135,
      " apples": 1136,
      " mat": 1137,
      " red": 1138,
      " (x": 1139,
      " cho": 1140,
      " start": 1141,
      "ivid": 1142,
      "ction": 1143,
      ".\nLet's": 1144,
      "ool": 1145,
      " pur": 1146,
      "ause": 1147,
      " read": 1148,
      " toget": 1149,
      " together": 1150,
      ");\nlabel(\"$": 1151,
      "formation": 1152,
      " interest": 1153,
      " doll": 1154,
      " fri": 1155,
      " \"let": 1156,
      " values": 1157,
      "ices": 1158,
      "ving": 1159,
      " rect": 1160,
      " information": 1161,
      "\\text": 1162,
      " meters": 1163,
      " least": 1164,
      " divisible": 1165,
      "ust": 1166,
      " $b": 1167,
      "ively": 1168,
      "\nLet's": 1169,
      " you": 1170,
      " such": 1171,
      "row": 1172,
      " ag": 1173,
      " cover": 1174,
      " correct": 1175,
      " disc": 1176,
      " cook": 1177,
      " ]": 1178,
      " made": 1179,
      " original": 1180,
      " over": 1181,
      " therefore": 1182,
      "bin": 1183,
      "ated": 1184,
      " hence": 1185,
      " $x$": 1186,
      "yc": 1187,
      " follows:\n": 1188,
      "ual": 1189,
      "?\nIf": 1190,
      " cer": 1191,
      " pages": 1192,
      "ute": 1193,
      " costs": 1194,
      " should": 1195,
      " vol": 1196,
      " respect": 1197,
      " She": 1198,
      " where": 1199,
      " &=": 1200,
      "ck": 1201,
      " }": 1202,
      " isolate": 1203,
      " Let": 1204,
      " \"s": 1205,
      " paid": 1206,
      " line": 1207,
      " certain": 1208,
      " larg": 1209,
      " since": 1210,
      "igh": 1211,
      " prime": 1212,
      "ord": 1213,
      " tick": 1214,
      "cul": 1215,
      " order": 1216,
      " wal": 1217,
      "$.\n": 1218,
      "ike": 1219,
      " There": 1220,
      "imum": 1221,
      "chool": 1222,
      " frac": 1223,
      " receiv": 1224,
      "\\l": 1225,
      " app": 1226,
      "idth": 1227,
      " ;": 1228,
      " express": 1229,
      " bag": 1230,
      " digits": 1231,
      " \"t": 1232,
      "wn": 1233,
      " base": 1234,
      "bles": 1235,
      "}.$": 1236,
      " because": 1237,
      " \"ex": 1238,
      " required": 1239,
      "ough": 1240,
      " purch": 1241,
      " cup": 1242,
      " blue": 1243,
      " rad": 1244,
      "ram": 1245,
      " person": 1246,
      ".\nH": 1247,
      "(x)": 1248,
      "ohn": 1249,
      "\\over": 1250,
      " taken": 1251,
      ")*": 1252,
      "ividing": 1253,
      " circle": 1254,
      " pain": 1255,
      " x:\n": 1256,
      "us,": 1257,
      ");\n\n": 1258,
      " \"explanation": 1259,
      "heta": 1260,
      " Since": 1261,
      " write:": 1262,
      " height": 1263,
      " right": 1264,
      " fraction": 1265,
      "ases": 1266,
      " school": 1267,
      " multiply": 1268,
      "enc": 1269,
      " piec": 1270,
      " mix": 1271,
      " di": 1272,
      " complete": 1273,
      " even": 1274,
      "}=": 1275,
      "equ": 1276,
      "stit": 1277,
      " boy": 1278,
      " store": 1279,
      " respectively": 1280,
      "Dividing": 1281,
      "pe": 1282,
      "itial": 1283,
      "ames": 1284,
      "uring": 1285,
      " cent": 1286,
      "ream": 1287,
      ".\nTo": 1288,
      " calcul": 1289,
      "ail": 1290,
      "{a": 1291,
      " bott": 1292,
      "BC": 1293,
      "pt": 1294,
      "ale": 1295,
      " end": 1296,
      " used": 1297,
      " tank": 1298,
      " any": 1299,
      " ways": 1300,
      "oes": 1301,
      " given:\n": 1302,
      "ug": 1303,
      " ad": 1304,
      " pieces": 1305,
      " travel": 1306,
      ");\ndraw(": 1307,
      " gallons": 1308,
      " volume": 1309,
      " fin": 1310,
      ".\nIf": 1311,
      " I": 1312,
      "\\theta": 1313,
      " child": 1314,
      " invest": 1315,
      "ous": 1316,
      " root": 1317,
      " che": 1318,
      "old": 1319,
      " discount": 1320,
      "));\ndraw(": 1321,
      " pass": 1322,
      " max": 1323,
      "}$,": 1324,
      " rest": 1325,
      " –": 1326,
      " use": 1327,
      "\\d": 1328,
      " cur": 1329,
      " radi": 1330,
      " cookies": 1331,
      "hed": 1332,
      "((": 1333,
      "ock": 1334,
      "ov": 1335,
      "als": 1336,
      "por": 1337,
      " ang": 1338,
      " men": 1339,
      ".\nSince": 1340,
      " |": 1341,
      " oun": 1342,
      ".\nA": 1343,
      " kil": 1344,
      " \\[": 1345,
      "ploy": 1346,
      "oor": 1347,
      " incl": 1348,
      " $X$": 1349,
      "oin": 1350,
      " off": 1351,
      "ps": 1352,
      "}}{": 1353,
      " different": 1354,
      " initial": 1355,
      "ator": 1356,
      " ’": 1357,
      "ted": 1358,
      " employ": 1359,
      " multiple": 1360,
      " \\\\\n&=": 1361,
      " exp": 1362,
      "ake": 1363,
      "ing,": 1364,
      " common": 1365,
      " eg": 1366,
      " bus": 1367,
      " thus": 1368,
      "x+": 1369,
      "ower": 1370,
      " x)": 1371,
      " sim": 1372,
      " marbles": 1373,
      " him": 1374,
      " real": 1375,
      "any": 1376,
      " thr": 1377,
      "rees": 1378,
      "ro": 1379,
      "rent": 1380,
      "urn": 1381,
      " liters": 1382,
      " On": 1383,
      "ycle": 1384,
      " next": 1385,
      " smallest": 1386,
      " formul": 1387,
      " equation:\n": 1388,
      " boxes": 1389,
      "mber": 1390,
      "ll": 1391,
      "ouse": 1392,
      " addition": 1393,
      " radius": 1394,
      "ither": 1395,
      " sav": 1396,
      " book": 1397,
      " gir": 1398,
      " selling": 1399,
      "ane": 1400,
      "ly,": 1401,
      " percentage": 1402,
      "out": 1403,
      " Find": 1404,
      "ees": 1405,
      " cross": 1406,
      "ical": 1407,
      ")=": 1408,
      " ve": 1409,
      "ia": 1410,
      " collect": 1411,
      " ann": 1412,
      " An": 1413,
      "{b": 1414,
      "ative": 1415,
      " combin": 1416,
      " pol": 1417,
      ".\nIn": 1418,
      " fill": 1419,
      "day,": 1420,
      " increase": 1421,
      " Total": 1422,
      " back": 1423,
      " before": 1424,
      " balls": 1425,
      " (-": 1426,
      ".\nSo,": 1427,
      " mean": 1428,
      "\\pm": 1429,
      " earned": 1430,
      " makes": 1431,
      "\\overline": 1432,
      " wants": 1433,
      " pack": 1434,
      " want": 1435,
      "way": 1436,
      " milk": 1437,
      " ob": 1438,
      "arge": 1439,
      " spends": 1440,
      " deg": 1441,
      "iel": 1442,
      "ark": 1443,
      " current": 1444,
      " cards": 1445,
      "enn": 1446,
      "\\\\": 1447,
      " some": 1448,
      "ib": 1449,
      "\\angle": 1450,
      " boys": 1451,
      " terms": 1452,
      "ines": 1453,
      " eat": 1454,
      " exact": 1455,
      " team": 1456,
      " day,": 1457,
      "akes": 1458,
      " bill": 1459,
      " ass": 1460,
      "dots": 1461,
      " expression": 1462,
      " sat": 1463,
      "oup": 1464,
      " runs": 1465,
      "omes": 1466,
      " trip": 1467,
      " received": 1468,
      " dollars": 1469,
      " cap": 1470,
      " gets": 1471,
      " ounces": 1472,
      " $n$": 1473,
      " mach": 1474,
      " formula": 1475,
      " â": 1476,
      " walk": 1477,
      "ins": 1478,
      " while": 1479,
      " another": 1480,
      "red": 1481,
      " minute": 1482,
      " job": 1483,
      "ee": 1484,
      " Therefore,": 1485,
      " spend": 1486,
      "fl": 1487,
      " sells": 1488,
      " X?": 1489,
      "}.\\]": 1490,
      "oot": 1491,
      " months": 1492,
      " $-": 1493,
      " Then": 1494,
      " pre": 1495,
      "ond": 1496,
      " reg": 1497,
      " !": 1498,
      "ert": 1499,
      " house": 1500,
      " ty": 1501,
      "eters": 1502,
      "{align*}\n": 1503,
      " gave": 1504,
      " additional": 1505,
      "/asy]": 1506,
      " each,": 1507,
      " share": 1508,
      " John": 1509,
      " Each": 1510,
      " sides,": 1511,
      " largest": 1512,
      "ares": 1513,
      " const": 1514,
      " greater": 1515,
      " student": 1516,
      "isf": 1517,
      " exactly": 1518,
      " cars": 1519,
      " ent": 1520,
      "}$.\nThe": 1521,
      " took": 1522,
      "ubtract": 1523,
      "ments": 1524,
      " fish": 1525,
      "imeter": 1526,
      "{A": 1527,
      " company": 1528,
      ".\nDividing": 1529,
      "ily": 1530,
      " case": 1531,
      " food": 1532,
      " odd": 1533,
      ".\nHe": 1534,
      " satisf": 1535,
      " x^": 1536,
      " during": 1537,
      "uts": 1538,
      "ubtracting": 1539,
      "ture": 1540,
      " paint": 1541,
      " room": 1542,
      " factors": 1543,
      " pairs": 1544,
      " children": 1545,
      "ball": 1546,
      " member": 1547,
      " friends": 1548,
      "rib": 1549,
      " contains": 1550,
      " salary": 1551,
      " increased": 1552,
      " cube": 1553,
      " dog": 1554,
      "\nTotal": 1555,
      " buys": 1556,
      " pick": 1557,
      "ath": 1558,
      " select": 1559,
      " fil": 1560,
      " still": 1561,
      "ric": 1562,
      " using": 1563,
      "ull": 1564,
      "encil": 1565,
      " dire": 1566,
      "cycle": 1567,
      " $x^": 1568,
      "ask": 1569,
      "=(": 1570,
      " equation,": 1571,
      " green": 1572,
      " tickets": 1573,
      " five": 1574,
      " pencil": 1575,
      "ads": 1576,
      " $B": 1577,
      "[/asy]": 1578,
      ")/": 1579,
      " needed": 1580,
      " see": 1581,
      " pop": 1582,
      " far": 1583,
      "upp": 1584,
      " sur": 1585,
      " dou": 1586,
      "{(": 1587,
      "hen": 1588,
      " weigh": 1589,
      "uc": 1590,
      "$?": 1591,
      " income": 1592,
      " Fr": 1593,
      " shir": 1594,
      " rectangle": 1595,
      "anges": 1596,
      " \"the": 1597,
      " mark": 1598,
      " wom": 1599,
      "olving": 1600,
      " girls": 1601,
      " art": 1602,
      "agon": 1603,
      " added": 1604,
      " home": 1605,
      "icks": 1606,
      "ied": 1607,
      "\nA": 1608,
      " like": 1609,
      " maximum": 1610,
      " rec": 1611,
      " angle": 1612,
      "izz": 1613,
      " fun": 1614,
      " ac": 1615,
      " pres": 1616,
      "ards": 1617,
      "rox": 1618,
      "atest": 1619,
      " finish": 1620,
      " got": 1621,
      " acc": 1622,
      " count": 1623,
      " group": 1624,
      " leav": 1625,
      "ordin": 1626,
      "ations": 1627,
      "ize(": 1628,
      " eggs": 1629,
      "acks": 1630,
      "ips": 1631,
      "{v": 1632,
      " ser": 1633,
      "\\equ": 1634,
      "iss": 1635,
      "\\equiv": 1636,
      " calculate": 1637,
      " sales": 1638,
      " pie": 1639,
      "width": 1640,
      " your": 1641,
      " weeks": 1642,
      " working": 1643,
      "quad": 1644,
      " perimeter": 1645,
      " row": 1646,
      " sale": 1647,
      " vot": 1648,
      " cups": 1649,
      "})": 1650,
      " ph": 1651,
      " tax": 1652,
      "},": 1653,
      " running": 1654,
      " −": 1655,
      " covered": 1656,
      " —": 1657,
      " meas": 1658,
      " through": 1659,
      "arrow": 1660,
      " So": 1661,
      " mixture": 1662,
      "&&": 1663,
      "width(": 1664,
      " en": 1665,
      "ient": 1666,
      "__": 1667,
      " white": 1668,
      "iven": 1669,
      "ian": 1670,
      " final": 1671,
      " bread": 1672,
      " six": 1673,
      " greatest": 1674,
      " combined": 1675,
      " full": 1676,
      "\nC": 1677,
      " ã": 1678,
      " $r": 1679,
      " pizz": 1680,
      "angular": 1681,
      "ah": 1682,
      " $c": 1683,
      " week,": 1684,
      "mount": 1685,
      " cat": 1686,
      " item": 1687,
      " For": 1688,
      " employees": 1689,
      " marks": 1690,
      "asy]\n": 1691,
      " choc": 1692,
      "ister": 1693,
      " could": 1694,
      " substit": 1695,
      ".\nShe": 1696,
      "ced": 1697,
      "))": 1698,
      "ultiply": 1699,
      ".\nTh": 1700,
      " def": 1701,
      "ink": 1702,
      " $P": 1703,
      " oranges": 1704,
      " result": 1705,
      " $f(": 1706,
      "ider": 1707,
      " scored": 1708,
      " approx": 1709,
      " multiples": 1710,
      " dogs": 1711,
      " either": 1712,
      "linewidth(": 1713,
      " Al": 1714,
      " choose": 1715,
      "pair": 1716,
      "ru": 1717,
      "ook": 1718,
      "{-": 1719,
      " fam": 1720,
      "$\",(": 1721,
      "ulation": 1722,
      "owers": 1723,
      " den": 1724,
      " cont": 1725,
      " $k": 1726,
      "a,": 1727,
      " This": 1728,
      " way": 1729,
      "ches": 1730,
      "ise": 1731,
      " $$": 1732,
      " sand": 1733,
      ".\nSimplify": 1734,
      " decre": 1735,
      " test": 1736,
      "^{-": 1737,
      "\\dots": 1738,
      " shop": 1739,
      " cust": 1740,
      " don": 1741,
      "de": 1742,
      " total,": 1743,
      "riangle": 1744,
      "},$": 1745,
      "\\tan": 1746,
      ")(x": 1747,
      "ions": 1748,
      " Mon": 1749,
      " constant": 1750,
      " initially": 1751,
      "{c": 1752,
      " given:\nNumber": 1753,
      " Ch": 1754,
      "ift": 1755,
      "ogram": 1756,
      "oses": 1757,
      " traveled": 1758,
      " women": 1759,
      "ms": 1760,
      " custom": 1761,
      " vert": 1762,
      "{x": 1763,
      " non": 1764,
      " population": 1765,
      "read": 1766,
      " redu": 1767,
      " works": 1768,
      "ys": 1769,
      "ann": 1770,
      "ield": 1771,
      "uting": 1772,
      " games": 1773,
      " draw": 1774,
      " filled": 1775,
      "\\log": 1776,
      "f(": 1777,
      " rectangular": 1778,
      "floor": 1779,
      "inom": 1780,
      " wat": 1781,
      " cans": 1782,
      "yl": 1783,
      " mov": 1784,
      "imal": 1785,
      "\\ge": 1786,
      " arr": 1787,
      "ote": 1788,
      " own": 1789,
      " $a$": 1790,
      "met": 1791,
      "\nThen": 1792,
      ";\n": 1793,
      " V": 1794,
      "Now": 1795,
      "uit": 1796,
      "a's": 1797,
      "ries": 1798,
      "urs": 1799,
      " includ": 1800,
      " rel": 1801,
      "\\\\\n": 1802,
      " quad": 1803,
      "));": 1804,
      " large": 1805,
      " ra": 1806,
      " ind": 1807,
      "els": 1808,
      " represent": 1809,
      " fem": 1810,
      " unit": 1811,
      " mid": 1812,
      " double": 1813,
      " been": 1814,
      " away": 1815,
      "cm": 1816,
      "\\pmod": 1817,
      " $C": 1818,
      "x-": 1819,
      " squares": 1820,
      ":\nx": 1821,
      "sh": 1822,
      "aces": 1823,
      "\\dfrac": 1824,
      " ins": 1825,
      " smaller": 1826,
      " worth": 1827,
      "\nSo": 1828,
      " Thus,": 1829,
      "+b": 1830,
      " bottles": 1831,
      " direction": 1832,
      " approxim": 1833,
      " $m": 1834,
      " plant": 1835,
      " meet": 1836,
      "andom": 1837,
      "ultiplying": 1838,
      " quadr": 1839,
      "owing": 1840,
      "stream": 1841,
      "ately": 1842,
      " candy": 1843,
      "itt": 1844,
      "x)": 1845,
      "poin": 1846,
      " sequ": 1847,
      " med": 1848,
      "iver": 1849,
      " obtain": 1850,
      "qrt(": 1851,
      "ircle": 1852,
      " random": 1853,
      " machine": 1854,
      " earns": 1855,
      "\",(": 1856,
      " Ex": 1857,
      "));\ndraw((": 1858,
      "alle": 1859,
      " $(x": 1860,
      " gain": 1861,
      " alone": 1862,
      " those": 1863,
      ".\nSubtracting": 1864,
      " First": 1865,
      " game": 1866,
      " leaves": 1867,
      " bo": 1868,
      " bask": 1869,
      " paper": 1870,
      "ump": 1871,
      " decid": 1872,
      " artic": 1873,
      " ($": 1874,
      " $p": 1875,
      "oth": 1876,
      " lo": 1877,
      "ir(": 1878,
      " purchased": 1879,
      " chocolate": 1880,
      " pip": 1881,
      " gl": 1882,
      " function": 1883,
      " whole": 1884,
      " After": 1885,
      " degrees": 1886,
      "elly": 1887,
      ".\nF": 1888,
      " ate": 1889,
      " friend": 1890,
      " Car": 1891,
      "{a}": 1892,
      " width": 1893,
      " fourth": 1894,
      " kilom": 1895,
      " members": 1896,
      " pencils": 1897,
      ".\n\n": 1898,
      " monthly": 1899,
      " bags": 1900,
      " inters": 1901,
      " sq": 1902,
      "\\binom": 1903,
      "ope": 1904,
      ")}": 1905,
      "omin": 1906,
      " round": 1907,
      " done": 1908,
      " equations": 1909,
      "\\triangle": 1910,
      " xy": 1911,
      "$\n": 1912,
      " doz": 1913,
      " poly": 1914,
      "acity": 1915,
      "bl": 1916,
      " ret": 1917,
      " nor": 1918,
      " each.": 1919,
      " graph": 1920,
      "real": 1921,
      "a^": 1922,
      " cubic": 1923,
      "port": 1924,
      " ren": 1925,
      " exam": 1926,
      "cl": 1927,
      " alread": 1928,
      " minimum": 1929,
      "-d": 1930,
      "ities": 1931,
      "=$": 1932,
      " put": 1933,
      " ev": 1934,
      ".\nO": 1935,
      " already": 1936,
      "vi": 1937,
      "ty": 1938,
      " prin": 1939,
      " entire": 1940,
      ").": 1941,
      " diagon": 1942,
      " coordin": 1943,
      " Mar": 1944,
      "allel": 1945,
      " sw": 1946,
      " slices": 1947,
      " draw(": 1948,
      "}(": 1949,
      " $y$": 1950,
      " votes": 1951,
      "y^": 1952,
      "gra": 1953,
      " foot": 1954,
      " roll": 1955,
      "ubstit": 1956,
      " capacity": 1957,
      " our": 1958,
      "ner": 1959,
      "utive": 1960,
      ")+": 1961,
      "_n": 1962,
      "ots": 1963,
      " present": 1964,
      "(x)$": 1965,
      "vers": 1966,
      "ating": 1967,
      "}{x": 1968,
      ")$,": 1969,
      " ju": 1970,
      "my": 1971,
      "ray": 1972,
      " substitute": 1973,
      "Ar": 1974,
      " explanation": 1975,
      " $\\": 1976,
      " ages": 1977,
      " center": 1978,
      " type": 1979,
      "da": 1980,
      " annual": 1981,
      "ection": 1982,
      " family": 1983,
      " sequence": 1984,
      "ocks": 1985,
      " park": 1986,
      " roots": 1987,
      "ables": 1988,
      "=$<<": 1989,
      " pound": 1990,
      "alph": 1991,
      "ason": 1992,
      "ives": 1993,
      ".\nM": 1994,
      " cle": 1995,
      "olution": 1996,
      " worked": 1997,
      " denomin": 1998,
      " whose": 1999,
      " place": 2000,
      "));\n\n": 2001,
      " √": 2002,
      "oons": 2003,
      " list": 2004,
      "\nH": 2005,
      "sqrt(": 2006,
      " hrs": 2007,
      " simple": 2008,
      "ures": 2009,
      " pat": 2010,
      " cents": 2011,
      " label(\"": 2012,
      " black": 2013,
      "usive": 2014,
      " bel": 2015,
      " $x=": 2016,
      " #": 2017,
      "eb": 2018,
      "here": 2019,
      "ping": 2020,
      "ident": 2021,
      "ym": 2022,
      "ellow": 2023,
      " larger": 2024,
      " Mr": 2025,
      " €": 2026,
      " brother": 2027,
      " build": 2028,
      " piece": 2029,
      " reach": 2030,
      "*.": 2031,
      "ught": 2032,
      " comput": 2033,
      " It": 2034,
      " gu": 2035,
      " dozen": 2036,
      " loss": 2037,
      " found": 2038,
      " ele": 2039,
      ");\nlabel(\"": 2040,
      "metic": 2041,
      "}\n": 2042,
      "’s": 2043,
      " $z": 2044,
      " change": 2045,
      " im": 2046,
      " parallel": 2047,
      " farm": 2048,
      "ubstituting": 2049,
      "B,": 2050,
      " bir": 2051,
      "A--": 2052,
      " el": 2053,
      " gas": 2054,
      "ecutive": 2055,
      "ithmetic": 2056,
      " players": 2057,
      "pos": 2058,
      " consider": 2059,
      "face": 2060,
      " uses": 2061,
      " hand": 2062,
      "ilar": 2063,
      " words": 2064,
      " arithmetic": 2065,
      "ics": 2066,
      ");\n[/asy]": 2067,
      " tree": 2068,
      " yellow": 2069,
      " stop": 2070,
      " ticket": 2071,
      "[asy]\n": 2072,
      "aught": 2073,
      "ever": 2074,
      " win": 2075,
      " candid": 2076,
      " power": 2077,
      " being": 2078,
      " plat": 2079,
      " gallon": 2080,
      " sa": 2081,
      " James": 2082,
      " vis": 2083,
      " among": 2084,
      ".\nSolving": 2085,
      " follows:\nNumber": 2086,
      " basket": 2087,
      "aced": 2088,
      "egative": 2089,
      " b^": 2090,
      "ger": 2091,
      ")--cycle": 2092,
      " reven": 2093,
      "\nTherefore,": 2094,
      " Y": 2095,
      "\n(": 2096,
      "ery": 2097,
      "ffic": 2098,
      "ero": 2099,
      "vel": 2100,
      " dep": 2101,
      " mill": 2102,
      " chair": 2103,
      " consecutive": 2104,
      "alpha": 2105,
      " cut": 2106,
      " eats": 2107,
      " decimal": 2108,
      " vect": 2109,
      " Express": 2110,
      "bs": 2111,
      "\\alpha": 2112,
      "ters": 2113,
      "ality": 2114,
      " becomes": 2115,
      " shirts": 2116,
      " beg": 2117,
      " mile": 2118,
      ";\n\n": 2119,
      "ather": 2120,
      " taking": 2121,
      " selected": 2122,
      " give": 2123,
      " inclusive": 2124,
      "mon": 2125,
      "ort": 2126,
      "arts": 2127,
      " seed": 2128,
      "erator": 2129,
      " jelly": 2130,
      " la": 2131,
      " race": 2132,
      " field": 2133,
      "ne": 2134,
      "ared": 2135,
      "room": 2136,
      " partic": 2137,
      "ject": 2138,
      " trees": 2139,
      " pens": 2140,
      " orange": 2141,
      " currently": 2142,
      " ext": 2143,
      ".\nSimplifying": 2144,
      "fect": 2145,
      " ban": 2146,
      "atic": 2147,
      ".\nE": 2148,
      "imin": 2149,
      "uck": 2150,
      "}+": 2151,
      " pays": 2152,
      " coff": 2153,
      "ega": 2154,
      " purchase": 2155,
      " kilogram": 2156,
      "aren": 2157,
      " produce": 2158,
      " charg": 2159,
      "$\n$": 2160,
      "\\om": 2161,
      " workers": 2162,
      "\\omega": 2163,
      "pes": 2164,
      " stand": 2165,
      "\\r": 2166,
      " items": 2167,
      " inst": 2168,
      "D$": 2169,
      "iday": 2170,
      " chick": 2171,
      " Tues": 2172,
      "),S": 2173,
      " ed": 2174,
      "ined": 2175,
      "peed": 2176,
      " quadratic": 2177,
      "nes": 2178,
      ".$\n\n": 2179,
      " tall": 2180,
      " side,": 2181,
      " high": 2182,
      "{b}": 2183,
      " going": 2184,
      "oe": 2185,
      " av": 2186,
      " hour,": 2187,
      "ists": 2188,
      "angles": 2189,
      " att": 2190,
      "atur": 2191,
      " floor": 2192,
      ")}{": 2193,
      "ence,": 2194,
      " picked": 2195,
      " just": 2196,
      " went": 2197,
      " perfect": 2198,
      "portion": 2199,
      " proportion": 2200,
      " quant": 2201,
      " parts": 2202,
      " mph": 2203,
      " plan": 2204,
      " A,": 2205,
      "),N": 2206,
      " increases": 2207,
      " $b$": 2208,
      " act": 2209,
      " equation:\n$": 2210,
      " kilometers": 2211,
      " surface": 2212,
      " sit": 2213,
      " oppos": 2214,
      " return": 2215,
      " denominator": 2216,
      " tow": 2217,
      "ference": 2218,
      " Cost": 2219,
      "tern": 2220,
      "itten": 2221,
      " y^": 2222,
      "axis": 2223,
      "iod": 2224,
      " divisor": 2225,
      " platform": 2226,
      " minutes,": 2227,
      " fewer": 2228,
      "ameter": 2229,
      " coffee": 2230,
      "ped": 2231,
      "ales": 2232,
      " cubes": 2233,
      "y,": 2234,
      " compound": 2235,
      " hold": 2236,
      " dividing": 2237,
      " packs": 2238,
      " opposite": 2239,
      "imeters": 2240,
      "pen": 2241,
      " top": 2242,
      " here": 2243,
      " again": 2244,
      "ney": 2245,
      "ands": 2246,
      " meter": 2247,
      " travels": 2248,
      " teac": 2249,
      " cond": 2250,
      " earnings": 2251,
      " empt": 2252,
      " x%": 2253,
      " log": 2254,
      " day.": 2255,
      " occ": 2256,
      " approximately": 2257,
      " apart": 2258,
      " candies": 2259,
      "min": 2260,
      " Bob": 2261,
      "-c": 2262,
      " wall": 2263,
      "ednes": 2264,
      "vert": 2265,
      " banan": 2266,
      " del": 2267,
      "ories": 2268,
      "A,": 2269,
      " table": 2270,
      " hours,": 2271,
      " cases": 2272,
      " bor": 2273,
      " bar": 2274,
      "igit": 2275,
      " pizza": 2276,
      " night": 2277,
      " female": 2278,
      " goes": 2279,
      "ved": 2280,
      " town": 2281,
      " dollar": 2282,
      " city": 2283,
      " math": 2284,
      "vious": 2285,
      " revenue": 2286,
      " collected": 2287,
      "\\|": 2288,
      " jar": 2289,
      " multipl": 2290,
      " started": 2291,
      "eep": 2292,
      "ork": 2293,
      " flowers": 2294,
      " $ABC": 2295,
      "ires": 2296,
      "ling": 2297,
      " (Number": 2298,
      " lost": 2299,
      "amp": 2300,
      " They": 2301,
      " satisfy": 2302,
      "\nCost": 2303,
      " glass": 2304,
      "arter": 2305,
      " solutions": 2306,
      "ucks": 2307,
      "eans": 2308,
      " equals": 2309,
      " litres": 2310,
      "-digit": 2311,
      " ⇒": 2312,
      " regular": 2313,
      " cats": 2314,
      " ft": 2315,
      " a_": 2316,
      " questions": 2317,
      " color": 2318,
      "point": 2319,
      "$.\nThe": 2320,
      " seg": 2321,
      "ifth": 2322,
      " breadth": 2323,
      " juice": 2324,
      "B--": 2325,
      " Mark": 2326,
      " shoes": 2327,
      " weighs": 2328,
      " hig": 2329,
      "par": 2330,
      " mod": 2331,
      "aster": 2332,
      "W);\nlabel(\"$": 2333,
      "ects": 2334,
      " dot": 2335,
      ")$.": 2336,
      ",\\]": 2337,
      " assume": 2338,
      "la": 2339,
      " gold": 2340,
      " teacher": 2341,
      " inequ": 2342,
      " repl": 2343,
      " stock": 2344,
      " plane": 2345,
      " \"speed": 2346,
      " savings": 2347,
      "}}$.": 2348,
      " $g": 2349,
      "unch": 2350,
      "\\q": 2351,
      " Tom": 2352,
      "\\qquad": 2353,
      "val": 2354,
      " sup": 2355,
      "ders": 2356,
      " invested": 2357,
      "cept": 2358,
      "elf": 2359,
      " bottle": 2360,
      "erry": 2361,
      " rain": 2362,
      " receive": 2363,
      " centimeters": 2364,
      "C,": 2365,
      " apple": 2366,
      " fruit": 2367,
      " investment": 2368,
      " f(": 2369,
      " tomat": 2370,
      " gard": 2371,
      "ash": 2372,
      " measure": 2373,
      " label(\"$": 2374,
      " look": 2375,
      " stick": 2376,
      "ior": 2377,
      "\nSince": 2378,
      " (x/": 2379,
      " following": 2380,
      " condition": 2381,
      " saved": 2382,
      " computer": 2383,
      " step": 2384,
      "inct": 2385,
      " sing": 2386,
      "inally,": 2387,
      "ids": 2388,
      " below": 2389,
      " period": 2390,
      "es.": 2391,
      " range": 2392,
      ".\nC": 2393,
      " When": 2394,
      "yst": 2395,
      "rive": 2396,
      " account": 2397,
      "a_": 2398,
      "inder": 2399,
      " choices": 2400,
      " distinct": 2401,
      " article": 2402,
      " quarter": 2403,
      " \"a": 2404,
      " say": 2405,
      " pool": 2406,
      " trans": 2407,
      " about": 2408,
      "Now,": 2409,
      "(n": 2410,
      " sister": 2411,
      " card": 2412,
      "rightarrow": 2413,
      "aches": 2414,
      " rows": 2415,
      " Wednes": 2416,
      "und": 2417,
      "),$": 2418,
      " grams": 2419,
      " visit": 2420,
      " des": 2421,
      "ether": 2422,
      "rows": 2423,
      "{n": 2424,
      " garden": 2425,
      " bed": 2426,
      " previous": 2427,
      " pipe": 2428,
      " U": 2429,
      " B,": 2430,
      " $AB": 2431,
      " check": 2432,
      "E);\nlabel(\"$": 2433,
      "ier": 2434,
      "iness": 2435,
      " days,": 2436,
      " john": 2437,
      " expens": 2438,
      " customers": 2439,
      "ogether": 2440,
      "\\in": 2441,
      "ude": 2442,
      ".\nOn": 2443,
      " business": 2444,
      " boat": 2445,
      "oon": 2446,
      "aving": 2447,
      " ten": 2448,
      " ordered": 2449,
      "Th": 2450,
      ")\n": 2451,
      "nom": 2452,
      " son": 2453,
      " equally": 2454,
      " sn": 2455,
      "black": 2456,
      " circum": 2457,
      "\nHe": 2458,
      " Sam": 2459,
      "nomial": 2460,
      "sing": 2461,
      "ina": 2462,
      "eta": 2463,
      " polynomial": 2464,
      "uel": 2465,
      "ush": 2466,
      "cd": 2467,
      " attend": 2468,
      "asing": 2469,
      " sandw": 2470,
      " Monday": 2471,
      " π": 2472,
      " triangles": 2473,
      "amps": 2474,
      " written": 2475,
      " begin": 2476,
      "rom": 2477,
      " sug": 2478,
      " $A$": 2479,
      " diameter": 2480,
      " Friday": 2481,
      " quantity": 2482,
      "ally": 2483,
      " elect": 2484,
      " negative": 2485,
      " cyl": 2486,
      " year,": 2487,
      "C--": 2488,
      " num": 2489,
      "ults": 2490,
      "\\quad": 2491,
      " $|": 2492,
      "iles": 2493,
      " lines": 2494,
      " straw": 2495,
      " \"c": 2496,
      "ium": 2497,
      " outc": 2498,
      "'t": 2499,
      "=-": 2500,
      "fill": 2501,
      "rew": 2502,
      " making": 2503,
      " empty": 2504,
      " $s": 2505,
      " fig": 2506,
      "rack": 2507,
      "dding": 2508,
      " actual": 2509,
      " having": 2510,
      " satisfies": 2511,
      " able": 2512,
      " along": 2513,
      ".\nThere": 2514,
      " sun": 2515,
      " bars": 2516,
      " hol": 2517,
      "ola": 2518,
      "ival": 2519,
      " sets": 2520,
      "nd": 2521,
      " post": 2522,
      " mor": 2523,
      " lengths": 2524,
      "ohol": 2525,
      " without": 2526,
      " join": 2527,
      "imals": 2528,
      " open": 2529,
      ".\nAfter": 2530,
      " At": 2531,
      "cohol": 2532,
      " terms,": 2533,
      " calories": 2534,
      "omet": 2535,
      " starts": 2536,
      " cloth": 2537,
      " try": 2538,
      " hot": 2539,
      " )\"": 2540,
      " mang": 2541,
      " $f(x)": 2542,
      "uppose": 2543,
      " inequality": 2544,
      "berries": 2545,
      " alcohol": 2546,
      " walks": 2547,
      " rew": 2548,
      "\nSimplify": 2549,
      ".\nEach": 2550,
      " $d": 2551,
      "ateral": 2552,
      " ice": 2553,
      " legs": 2554,
      " won": 2555,
      " pot": 2556,
      " youn": 2557,
      " downstream": 2558,
      ".\nThus,": 2559,
      " fifth": 2560,
      "{pmatrix}$": 2561,
      " reduced": 2562,
      " trains": 2563,
      " sk": 2564,
      "}^": 2565,
      " distrib": 2566,
      " quot": 2567,
      "osen": 2568,
      " receives": 2569,
      " coordinates": 2570,
      "e,": 2571,
      " longer": 2572,
      " diagonal": 2573,
      " bananas": 2574,
      "urther": 2575,
      " adding": 2576,
      " annum": 2577,
      " relative": 2578,
      " simplif": 2579,
      " ˆ": 2580,
      " Mary": 2581,
      " song": 2582,
      " liter": 2583,
      " party": 2584,
      "____": 2585,
      "ers,": 2586,
      " By": 2587,
      " blocks": 2588,
      "_{n": 2589,
      " Mr.": 2590,
      "-h": 2591,
      "ress": 2592,
      "ones": 2593,
      "));\nlabel(\"$": 2594,
      "iqu": 2595,
      " quart": 2596,
      " cart": 2597,
      " hy": 2598,
      " yards": 2599,
      "(\"$": 2600,
      " neither": 2601,
      "ients": 2602,
      " crosses": 2603,
      " seeds": 2604,
      " roses": 2605,
      "Since": 2606,
      " morning": 2607,
      "}.\n": 2608,
      "iving": 2609,
      " flour": 2610,
      " starting": 2611,
      " jour": 2612,
      ");\ndraw((": 2613,
      " machines": 2614,
      "$.\nTherefore,": 2615,
      " bow": 2616,
      " ago": 2617,
      " shirt": 2618,
      "hel": 2619,
      " bak": 2620,
      "anc": 2621,
      " charge": 2622,
      " older": 2623,
      ":\n\\[": 2624,
      " case,": 2625,
      " animals": 2626,
      " letters": 2627,
      " brown": 2628,
      "dir(": 2629,
      " $t": 2630,
      " once": 2631,
      " get\n\\[": 2632,
      " chips": 2633,
      " egg": 2634,
      "man": 2635,
      "not": 2636,
      " may": 2637,
      " get:\n$": 2638,
      " region": 2639,
      " cows": 2640,
      " coins": 2641,
      " \"(": 2642,
      " million": 2643,
      "ton": 2644,
      "}}$": 2645,
      " soda": 2646,
      " \"p": 2647,
      " angles": 2648,
      ".\nFor": 2649,
      " save": 2650,
      "att": 2651,
      "eck": 2652,
      " ax": 2653,
      " rais": 2654,
      " elimin": 2655,
      " median": 2656,
      " str": 2657,
      "\nF": 2658,
      "-f": 2659,
      " size": 2660,
      " cray": 2661,
      " quotient": 2662,
      " turn": 2663,
      " degree": 2664,
      "ilateral": 2665,
      " getting": 2666,
      "ever,": 2667,
      " sugar": 2668,
      "sc": 2669,
      " caught": 2670,
      ");\ndot": 2671,
      "]{": 2672,
      "ma": 2673,
      "rite": 2674,
      " have:\n$": 2675,
      " buck": 2676,
      " obtained": 2677,
      " male": 2678,
      " coe": 2679,
      " Satur": 2680,
      " metres": 2681,
      " land": 2682,
      " convert": 2683,
      " cream": 2684,
      " buying": 2685,
      " \"total": 2686,
      "ature": 2687,
      "arry": 2688,
      " coeffic": 2689,
      " “": 2690,
      "Given": 2691,
      " journey": 2692,
      " a^": 2693,
      " multiplying": 2694,
      " bat": 2695,
      " mo": 2696,
      " cop": 2697,
      " chosen": 2698,
      "ization": 2699,
      " $S": 2700,
      " remov": 2701,
      " plus": 2702,
      " drive": 2703,
      " alt": 2704,
      "ops": 2705,
      " played": 2706,
      " guest": 2707,
      "{vmatrix": 2708,
      " extra": 2709,
      "cess": 2710,
      "ircle((": 2711,
      " Z": 2712,
      " single": 2713,
      " consum": 2714,
      "\\lfloor": 2715,
      "\\rfloor": 2716,
      "das": 2717,
      " lcm": 2718,
      "arest": 2719,
      "Right": 2720,
      "ocal": 2721,
      " matrix": 2722,
      "ails": 2723,
      "D,": 2724,
      " bank": 2725,
      " pen": 2726,
      " years,": 2727,
      "(a": 2728,
      " covers": 2729,
      " solving": 2730,
      " show": 2731,
      " plants": 2732,
      " eng": 2733,
      "\\overrightarrow": 2734,
      " drawn": 2735,
      " vector": 2736,
      " big": 2737,
      " collection": 2738,
      "$$": 2739,
      " nearest": 2740,
      " charges": 2741,
      "ombin": 2742,
      "avor": 2743,
      " zero": 2744,
      " chees": 2745,
      " serv": 2746,
      " chairs": 2747,
      " ident": 2748,
      " decided": 2749,
      " `": 2750,
      " completed": 2751,
      ".\nMultiplying": 2752,
      " lunch": 2753,
      " stamps": 2754,
      " ask": 2755,
      "wh": 2756,
      "ory": 2757,
      " week.": 2758,
      "{v}": 2759,
      " kilograms": 2760,
      "tr": 2761,
      ".\nThis": 2762,
      " follows:\n(": 2763,
      "wo": 2764,
      "{x^": 2765,
      " including": 2766,
      ").$": 2767,
      " gum": 2768,
      " stream": 2769,
      "units": 2770,
      " outcomes": 2771,
      " ref": 2772,
      " repe": 2773,
      " soc": 2774,
      " walking": 2775,
      "ience": 2776,
      "hes,": 2777,
      " balloons": 2778,
      " One": 2779,
      " tables": 2780,
      " mother": 2781,
      " under": 2782,
      " slope": 2783,
      " arrange": 2784,
      "+c": 2785,
      "ounts": 2786,
      " Jenn": 2787,
      " eaten": 2788,
      " movie": 2789,
      "\\Right": 2790,
      "by": 2791,
      " tiles": 2792,
      "ony": 2793,
      "\\Rightarrow": 2794,
      "ished": 2795,
      " inch": 2796,
      " butter": 2797,
      " manag": 2798,
      " shown": 2799,
      " wide": 2800,
      " bab": 2801,
      " clos": 2802,
      " ride": 2803,
      "x.\nWe": 2804,
      "aded": 2805,
      " section": 2806,
      "ies,": 2807,
      " formed": 2808,
      " traveling": 2809,
      " clean": 2810,
      " swim": 2811,
      "\\%": 2812,
      " sign": 2813,
      " paren": 2814,
      " truck": 2815,
      " cp": 2816,
      " past": 2817,
      " equival": 2818,
      " short": 2819,
      "vis": 2820,
      " cre": 2821,
      "orem": 2822,
      "ooks": 2823,
      " beads": 2824,
      "draw((": 2825,
      "ilities": 2826,
      " rid": 2827,
      " choice": 2828,
      " similar": 2829,
      "Then": 2830,
      " corn": 2831,
      " walked": 2832,
      " market": 2833,
      " crayons": 2834,
      "na": 2835,
      "rice": 2836,
      "\\beta": 2837,
      "ways": 2838,
      " light": 2839,
      "}{b": 2840,
      " true": 2841,
      " vertices": 2842,
      " scores": 2843,
      "hest": 2844,
      " St": 2845,
      " circumference": 2846,
      " equivalent": 2847,
      " ∴": 2848,
      "dle": 2849,
      " defined": 2850,
      " decrease": 2851,
      " feed": 2852,
      " due": 2853,
      " \"solution": 2854,
      "ystem": 2855,
      ".\nJ": 2856,
      " sem": 2857,
      "to": 2858,
      "umn": 2859,
      " salt": 2860,
      "ef": 2861,
      "}-": 2862,
      " bc": 2863,
      "aring": 2864,
      " leg": 2865,
      " C,": 2866,
      "-s": 2867,
      "aur": 2868,
      " face": 2869,
      " further": 2870,
      "graph": 2871,
      " expressed": 2872,
      " low": 2873,
      " intersection": 2874,
      "uits": 2875,
      " system": 2876,
      " areas": 2877,
      " hour.": 2878,
      "fty": 2879,
      "\nP": 2880,
      "^n": 2881,
      " And": 2882,
      " father": 2883,
      "idge": 2884,
      "\nTh": 2885,
      " $a_": 2886,
      " Thurs": 2887,
      "ibr": 2888,
      " customer": 2889,
      " segment": 2890,
      " shel": 2891,
      " decides": 2892,
      " cour": 2893,
      " around": 2894,
      ");\n\nlabel(\"$": 2895,
      "{vmatrix}": 2896,
      "ombining": 2897,
      " vac": 2898,
      " air": 2899,
      " Sun": 2900,
      " Jan": 2901,
      " stickers": 2902,
      "x$": 2903,
      "race": 2904,
      " season": 2905,
      " enough": 2906,
      " birth": 2907,
      "\\infty": 2908,
      "pi": 2909,
      "}{a": 2910,
      " proper": 2911,
      "ceed": 2912,
      " produces": 2913,
      " project": 2914,
      "ward": 2915,
      " Amount": 2916,
      " $y=": 2917,
      " $X$,": 2918,
      " candidate": 2919,
      " ∗": 2920,
      " ducks": 2921,
      " Determine": 2922,
      " tem": 2923,
      " rewrite": 2924,
      " eliminate": 2925,
      " nd": 2926,
      " noteb": 2927,
      "rist": 2928,
      "inks": 2929,
      " pig": 2930,
      " page": 2931,
      " \"d": 2932,
      " rent": 2933,
      " Q": 2934,
      ",S": 2935,
      " wheel": 2936,
      " month,": 2937,
      " compared": 2938,
      " $c$": 2939,
      "black+": 2940,
      "int": 2941,
      " grade": 2942,
      "-p": 2943,
      "iced": 2944,
      " His": 2945,
      "-th": 2946,
      " ste": 2947,
      "omp": 2948,
      "gru": 2949,
      " congru": 2950,
      " midpoint": 2951,
      " norm": 2952,
      " hor": 2953,
      " groc": 2954,
      " faster": 2955,
      "iting": 2956,
      "(x^": 2957,
      "\\ldots": 2958,
      " numerator": 2959,
      " drink": 2960,
      "\nAmount": 2961,
      " pizzas": 2962,
      "enth": 2963,
      " factorization": 2964,
      "ording": 2965,
      " cupc": 2966,
      " chicken": 2967,
      " figure": 2968,
      ",\\": 2969,
      " wood": 2970,
      " bal": 2971,
      " Jack": 2972,
      " Given": 2973,
      " recip": 2974,
      " stri": 2975,
      " triple": 2976,
      ")x": 2977,
      " station": 2978,
      " coin": 2979,
      "aps": 2980,
      " Tuesday": 2981,
      "ried": 2982,
      " Br": 2983,
      " let's": 2984,
      "pond": 2985,
      "}\n\n": 2986,
      " $(-": 2987,
      " ge": 2988,
      " find:\n$": 2989,
      " allow": 2990,
      "(x+": 2991,
      " building": 2992,
      " lemon": 2993,
      " plot": 2994,
      " requires": 2995,
      " tomatoes": 2996,
      ")^{": 2997,
      " toys": 2998,
      "iture": 2999,
      " oper": 3000,
      "}}.$": 3001,
      " bills": 3002,
      " cylinder": 3003,
      " bul": 3004,
      " kids": 3005,
      " always": 3006,
      " Ale": 3007,
      " products": 3008,
      " removed": 3009,
      "f(x)": 3010,
      "ret": 3011,
      " din": 3012,
      " $B$": 3013,
      "A$\",": 3014,
      "y+": 3015,
      "eth": 3016,
      " ran": 3017,
      " later": 3018,
      " have?": 3019,
      " Ar": 3020,
      "ission": 3021,
      " fuel": 3022,
      " upstream": 3023,
      ")--(-": 3024,
      "{w": 3025,
      " $N": 3026,
      "lets": 3027,
      " spec": 3028,
      " adult": 3029,
      " x:\n$": 3030,
      " Em": 3031,
      " libr": 3032,
      "imens": 3033,
      " holds": 3034,
      " $D": 3035,
      " dir(": 3036,
      " ship": 3037,
      " randomly": 3038,
      " jellyb": 3039,
      "ead": 3040,
      "pand": 3041,
      " (a": 3042,
      " kn": 3043,
      "work": 3044,
      " wid": 3045,
      " call": 3046,
      " $BC": 3047,
      "array": 3048,
      " pole": 3049,
      " basketball": 3050,
      " temper": 3051,
      " wa": 3052,
      " nick": 3053,
      " lim": 3054,
      "\\div": 3055,
      " beginning": 3056,
      "unitsize(": 3057,
      " mom": 3058,
      " mixed": 3059,
      " head": 3060,
      " wash": 3061,
      "bf": 3062,
      " cake": 3063,
      " bur": 3064,
      "orn": 3065,
      "itc": 3066,
      " keep": 3067,
      " reading": 3068,
      "uppies": 3069,
      " First,": 3070,
      " multiplied": 3071,
      "],": 3072,
      "pers": 3073,
      " cakes": 3074,
      " Am": 3075,
      "ividual": 3076,
      "&&&&": 3077,
      "ho": 3078,
      " vide": 3079,
      "rad": 3080,
      " space": 3081,
      "(x-": 3082,
      " possib": 3083,
      " individual": 3084,
      "iam": 3085,
      ".\nB": 3086,
      " circular": 3087,
      "-$": 3088,
      "gcd": 3089,
      "pend": 3090,
      " consists": 3091,
      "ean": 3092,
      "uff": 3093,
      "rel": 3094,
      " interval": 3095,
      " contrib": 3096,
      " library": 3097,
      " toy": 3098,
      " ABC": 3099,
      " abs": 3100,
      " produced": 3101,
      "\\textbf": 3102,
      "ris": 3103,
      " eight": 3104,
      " corres": 3105,
      ");\n\ndraw(": 3106,
      "y-": 3107,
      " my": 3108,
      " told": 3109,
      "}$.The": 3110,
      " expon": 3111,
      " standard": 3112,
      "tes": 3113,
      "gy": 3114,
      " sle": 3115,
      " bas": 3116,
      "\\m": 3117,
      " pet": 3118,
      " container": 3119,
      " $O": 3120,
      " mag": 3121,
      " dimens": 3122,
      " cannot": 3123,
      " road": 3124,
      " deliver": 3125,
      " rev": 3126,
      " $k$": 3127,
      " socks": 3128,
      " persons": 3129,
      "ew": 3130,
      " beans": 3131,
      " Ste": 3132,
      " x:\nx": 3133,
      " moving": 3134,
      " lowest": 3135,
      "i)": 3136,
      " r^": 3137,
      " passes": 3138,
      "lit": 3139,
      " middle": 3140,
      " pic": 3141,
      " x\nNumber": 3142,
      " calculated": 3143,
      " particip": 3144,
      "B$\",": 3145,
      " ep": 3146,
      " X,": 3147,
      " borrow": 3148,
      " strawberries": 3149,
      "iol": 3150,
      " tip": 3151,
      " Alex": 3152,
      " jellybeans": 3153,
      "\\h": 3154,
      " ham": 3155,
      "Cost": 3156,
      " total?": 3157,
      " vertex": 3158,
      "pendic": 3159,
      " ml": 3160,
      " leak": 3161,
      " separ": 3162,
      " note": 3163,
      " decreased": 3164,
      ")--cycle,": 3165,
      " songs": 3166,
      "pendicular": 3167,
      "z^": 3168,
      "urt": 3169,
      " parab": 3170,
      " goal": 3171,
      "ves": 3172,
      ".\nSubstituting": 3173,
      "aily": 3174,
      "vin": 3175,
      "{B": 3176,
      " free": 3177,
      "imize": 3178,
      "implies": 3179,
      " series": 3180,
      " birds": 3181,
      " glasses": 3182,
      "size(": 3183,
      "ital": 3184,
      " Jim": 3185,
      " simplifies": 3186,
      "oordin": 3187,
      "til": 3188,
      " c^": 3189,
      " cister": 3190,
      " most": 3191,
      " perpendicular": 3192,
      "ching": 3193,
      "ized": 3194,
      " drives": 3195,
      " invers": 3196,
      " cistern": 3197,
      " determ": 3198,
      " rot": 3199,
      " payment": 3200,
      " direct": 3201,
      " Wednesday": 3202,
      "+(": 3203,
      " sil": 3204,
      " placed": 3205,
      " younger": 3206,
      " level": 3207,
      " Sar": 3208,
      "dot((": 3209,
      " minutes.": 3210,
      " Bill": 3211,
      " tre": 3212,
      " swe": 3213,
      " bridge": 3214,
      " rooms": 3215,
      " phone": 3216,
      " candidates": 3217,
      "-m": 3218,
      "isod": 3219,
      " dice": 3220,
      ")..": 3221,
      " episod": 3222,
      "ination": 3223,
      "uming": 3224,
      "vey": 3225,
      " char": 3226,
      " plans": 3227,
      "-coordin": 3228,
      "sp": 3229,
      " bike": 3230,
      " hours.": 3231,
      " divisors": 3232,
      " planted": 3233,
      " highest": 3234,
      " asked": 3235,
      " hors": 3236,
      "etting": 3237,
      " $a^": 3238,
      " From": 3239,
      " particular": 3240,
      "\nM": 3241,
      " drinks": 3242,
      " X$": 3243,
      "-x": 3244,
      "n+": 3245,
      " pract": 3246,
      "oods": 3247,
      " $r$": 3248,
      "ss": 3249,
      " dress": 3250,
      " daily": 3251,
      ")*x": 3252,
      " $m$": 3253,
      "\nSimplifying,": 3254,
      "gon": 3255,
      "gray": 3256,
      " clim": 3257,
      " event": 3258,
      " sandwic": 3259,
      "dashed": 3260,
      " [asy]\n": 3261,
      " favor": 3262,
      " tom": 3263,
      "\\cdots": 3264,
      " seats": 3265,
      " phot": 3266,
      " follows:\n(Number": 3267,
      "..": 3268,
      " speeds": 3269,
      "{X": 3270,
      "}\\]": 3271,
      " dra": 3272,
      "-in": 3273,
      "ener": 3274,
      " girl": 3275,
      " er": 3276,
      "-b": 3277,
      "af": 3278,
      "yth": 3279,
      " z^": 3280,
      ")*(": 3281,
      " passeng": 3282,
      " So,": 3283,
      " x/": 3284,
      " neck": 3285,
      " letter": 3286,
      " circles": 3287,
      " containing": 3288,
      " bottom": 3289,
      " example": 3290,
      "Arrow": 3291,
      "/h": 3292,
      "imilar": 3293,
      " giving": 3294,
      "gets": 3295,
      " until": 3296,
      " reads": 3297,
      " well": 3298,
      "ighb": 3299,
      " situ": 3300,
      " occurs": 3301,
      " tang": 3302,
      " equilateral": 3303,
      " princ": 3304,
      "ael": 3305,
      " wind": 3306,
      " study": 3307,
      " painting": 3308,
      " pattern": 3309,
      " today": 3310,
      " Two": 3311,
      " originally": 3312,
      " adults": 3313,
      "ompute": 3314,
      "CD": 3315,
      "}{r": 3316,
      " matches": 3317,
      " contin": 3318,
      " inside": 3319,
      " temperature": 3320,
      "C$\",": 3321,
      "oid": 3322,
      " x_": 3323,
      " lot": 3324,
      " heads": 3325,
      "ored": 3326,
      " options": 3327,
      " measures": 3328,
      "shift": 3329,
      " expenses": 3330,
      " potat": 3331,
      " state": 3332,
      "aking": 3333,
      " sphere": 3334,
      "xy": 3335,
      " rh": 3336,
      "ational": 3337,
      "ogs": 3338,
      " process": 3339,
      " meat": 3340,
      " chem": 3341,
      " restaur": 3342,
      "abb": 3343,
      " complex": 3344,
      "illy": 3345,
      " pies": 3346,
      "ing.": 3347,
      "ields": 3348,
      " Saturday": 3349,
      " dough": 3350,
      "*x": 3351,
      "jects": 3352,
      " fruits": 3353,
      " exceed": 3354,
      " Jul": 3355,
      " cupcakes": 3356,
      " neckl": 3357,
      " por": 3358,
      " ones": 3359,
      "\\sum": 3360,
      " situation": 3361,
      " pants": 3362,
      "onts": 3363,
      " \"n": 3364,
      " neighb": 3365,
      " grand": 3366,
      " towards": 3367,
      "ai": 3368,
      "pot": 3369,
      "orm": 3370,
      " local": 3371,
      "ontsize(": 3372,
      "ging": 3373,
      "self": 3374,
      "anged": 3375,
      " sent": 3376,
      ".\nSimplifying,": 3377,
      "E$": 3378,
      "ichael": 3379,
      " drove": 3380,
      "{A}": 3381,
      "black+linewidth(": 3382,
      " brought": 3383,
      " balance": 3384,
      "med": 3385,
      "y's": 3386,
      " drop": 3387,
      "tail": 3388,
      "uted": 3389,
      "osing": 3390,
      " jump": 3391,
      " ii": 3392,
      " Her": 3393,
      " division": 3394,
      " mangoes": 3395,
      " borrowed": 3396,
      " sandwiches": 3397,
      "P(\"": 3398,
      "ogy": 3399,
      "app": 3400,
      " problems": 3401,
      " instead": 3402,
      " geomet": 3403,
      " Tim": 3404,
      " plug": 3405,
      " club": 3406,
      " travelled": 3407,
      "Using": 3408,
      " hard": 3409,
      " elements": 3410,
      "ythag": 3411,
      "n't": 3412,
      "{array": 3413,
      " pill": 3414,
      "ont": 3415,
      ",N": 3416,
      " pink": 3417,
      "une": 3418,
      "\\leq": 3419,
      " bring": 3420,
      " driving": 3421,
      " expend": 3422,
      " survey": 3423,
      " counted": 3424,
      " lawn": 3425,
      "lo": 3426,
      " $F": 3427,
      " $h": 3428,
      " stra": 3429,
      "centage": 3430,
      " Tuesday,": 3431,
      "rows(": 3432,
      " bucket": 3433,
      " sleep": 3434,
      " pump": 3435,
      " \"ans": 3436,
      " employee": 3437,
      "{x}{": 3438,
      "i,": 3439,
      "omb": 3440,
      " that\n\\[": 3441,
      " guests": 3442,
      " candles": 3443,
      " inverse": 3444,
      " dest": 3445,
      "ester": 3446,
      " weeks,": 3447,
      " $f(x)$": 3448,
      " player": 3449,
      " raised": 3450,
      "ply": 3451,
      "ross": 3452,
      " cone": 3453,
      "imilarly,": 3454,
      "(f": 3455,
      "Total": 3456,
      "hic": 3457,
      " Le": 3458,
      " packages": 3459,
      " resulting": 3460,
      " articles": 3461,
      " widgets": 3462,
      " net": 3463,
      "\nShe": 3464,
      "aneous": 3465,
      " vehic": 3466,
      " parents": 3467,
      " horses": 3468,
      " oil": 3469,
      " $\\$": 3470,
      " bowl": 3471,
      " straight": 3472,
      "E);": 3473,
      "n-": 3474,
      "nings": 3475,
      " path": 3476,
      "omm": 3477,
      "ifts": 3478,
      " Mike": 3479,
      " Cal": 3480,
      " Thus": 3481,
      " $P$": 3482,
      " dimensions": 3483,
      " portion": 3484,
      "the": 3485,
      " finished": 3486,
      "b^": 3487,
      "ole": 3488,
      " pond": 3489,
      " fast": 3490,
      " hel": 3491,
      ".$$": 3492,
      " grapes": 3493,
      "A--B--": 3494,
      "x=": 3495,
      " track": 3496,
      "itude": 3497,
      " gener": 3498,
      " leave": 3499,
      "}$.\n": 3500,
      " $q": 3501,
      "ed,": 3502,
      " carry": 3503,
      " pean": 3504,
      " succ": 3505,
      " intersect": 3506,
      " diagonals": 3507,
      "[asy]\nunitsize(": 3508,
      " har": 3509,
      " answers": 3510,
      "ouses": 3511,
      " pipes": 3512,
      " limit": 3513,
      " silver": 3514,
      ").\\]": 3515,
      "Amount": 3516,
      " ma": 3517,
      " AB": 3518,
      " within": 3519,
      " restaurant": 3520,
      " brace": 3521,
      "ecause": 3522,
      " cm);\n\n": 3523,
      " females": 3524,
      "ceil": 3525,
      " excl": 3526,
      " science": 3527,
      " correspond": 3528,
      "\nIn": 3529,
      "ek": 3530,
      "uf": 3531,
      " hair": 3532,
      " soap": 3533,
      " clot": 3534,
      "\\\\\n&=": 3535,
      " avail": 3536,
      " cheese": 3537,
      " video": 3538,
      "play": 3539,
      "{c}": 3540,
      " identical": 3541,
      " Let's": 3542,
      "aw": 3543,
      " spr": 3544,
      " jack": 3545,
      "}{x}": 3546,
      " looking": 3547,
      "D--": 3548,
      " retail": 3549,
      " Mari": 3550,
      "),linewidth(": 3551,
      " catch": 3552,
      " quarters": 3553,
      "-third": 3554,
      ",\n\\[": 3555,
      " Theorem": 3556,
      "lish": 3557,
      " sam": 3558,
      " bac": 3559,
      "arc": 3560,
      "ermel": 3561,
      " weekly": 3562,
      "t^": 3563,
      " miss": 3564,
      " {\n": 3565,
      " baseball": 3566,
      ".\nAnd": 3567,
      " Monday,": 3568,
      " parking": 3569,
      " compounded": 3570,
      " success": 3571,
      " ⁄": 3572,
      "az": 3573,
      "where": 3574,
      "ercentage": 3575,
      "ances": 3576,
      " $x$,": 3577,
      " tele": 3578,
      " watermel": 3579,
      " expenditure": 3580,
      "ners": 3581,
      " loses": 3582,
      " clock": 3583,
      " production": 3584,
      " chickens": 3585,
      "$\nThe": 3586,
      "-sh": 3587,
      "ault": 3588,
      " hats": 3589,
      "ipal": 3590,
      " hypot": 3591,
      "ufact": 3592,
      " ÷": 3593,
      "-axis": 3594,
      " $w": 3595,
      "bert": 3596,
      "import": 3597,
      " parabola": 3598,
      ",y": 3599,
      " \"x": 3600,
      "istance": 3601,
      " dollars,": 3602,
      " replaced": 3603,
      "/hour": 3604,
      " available": 3605,
      ",\n": 3606,
      "hemat": 3607,
      " fence": 3608,
      " fix": 3609,
      " manufact": 3610,
      ");\npair": 3611,
      " shor": 3612,
      "andy": 3613,
      "ective": 3614,
      " farmer": 3615,
      " notebooks": 3616,
      " possibilities": 3617,
      " _": 3618,
      "ming": 3619,
      " get:\n": 3620,
      " worker": 3621,
      " avg": 3622,
      "ape": 3623,
      "ennis": 3624,
      " coordinate": 3625,
      ",\\]so": 3626,
      "gan": 3627,
      "x/": 3628,
      " wages": 3629,
      " cyc": 3630,
      "}{c": 3631,
      "ultaneous": 3632,
      " compet": 3633,
      "AB": 3634,
      " die": 3635,
      "ication": 3636,
      " answered": 3637,
      " yields": 3638,
      " Compute": 3639,
      " simultaneous": 3640,
      " doubled": 3641,
      " @": 3642,
      "on's": 3643,
      "enuse": 3644,
      "ences": 3645,
      " hands": 3646,
      "ara": 3647,
      " gift": 3648,
      " left.": 3649,
      " feet,": 3650,
      " subtracting": 3651,
      " office": 3652,
      "{M": 3653,
      "ica": 3654,
      "!$": 3655,
      "nie": 3656,
      "xpand": 3657,
      " good": 3658,
      " mins": 3659,
      " block": 3660,
      "pez": 3661,
      " coefficient": 3662,
      " neighbor": 3663,
      "ched": 3664,
      " Hence,": 3665,
      " time,": 3666,
      " usual": 3667,
      " match": 3668,
      " correctly": 3669,
      " passed": 3670,
      " clear": 3671,
      " ”": 3672,
      "f[": 3673,
      " band": 3674,
      " lay": 3675,
      " places": 3676,
      " fraction.": 3677,
      " Carl": 3678,
      " saw": 3679,
      " higher": 3680,
      " climb": 3681,
      "gers": 3682,
      "yle": 3683,
      " x\n": 3684,
      " trapez": 3685,
      "aul": 3686,
      "s:": 3687,
      "erc": 3688,
      ".\nW": 3689,
      "ife": 3690,
      " prog": 3691,
      " inches,": 3692,
      " Note": 3693,
      " polygon": 3694,
      "land": 3695,
      "uary": 3696,
      " comes": 3697,
      " meal": 3698,
      " Jerry": 3699,
      " mathemat": 3700,
      " veget": 3701,
      " vectors": 3702,
      "!}{": 3703,
      "$.\nSince": 3704,
      "ited": 3705,
      " appl": 3706,
      " metre": 3707,
      " profits": 3708,
      "velop": 3709,
      "iology": 3710,
      "ythagore": 3711,
      " clothes": 3712,
      " hypotenuse": 3713,
      "fish": 3714,
      " eq": 3715,
      " liqu": 3716,
      "),E": 3717,
      " Peter": 3718,
      "true": 3719,
      "W);": 3720,
      "a+": 3721,
      " sib": 3722,
      "atively": 3723,
      " py": 3724,
      " split": 3725,
      "),black+linewidth(": 3726,
      "Thus,": 3727,
      "ser": 3728,
      " factory": 3729,
      " movies": 3730,
      " raise": 3731,
      " property": 3732,
      "ythagorean": 3733,
      "})^": 3734,
      " bud": 3735,
      " stre": 3736,
      "\\tfrac": 3737,
      "ribed": 3738,
      " goods": 3739,
      "ears": 3740,
      "),red": 3741,
      " divides": 3742,
      " package": 3743,
      " tangent": 3744,
      "\nE": 3745,
      "bo": 3746,
      " task": 3747,
      " cher": 3748,
      " bath": 3749,
      " hund": 3750,
      "ott": 3751,
      " \"in": 3752,
      " muff": 3753,
      " $x+": 3754,
      "ny": 3755,
      "er,": 3756,
      " mot": 3757,
      " However,": 3758,
      " obser": 3759,
      " birthday": 3760,
      " fly": 3761,
      " ground": 3762,
      " column": 3763,
      " dinner": 3764,
      "max": 3765,
      "ley": 3766,
      " Ben": 3767,
      "{AB": 3768,
      " marked": 3769,
      " owns": 3770,
      " $C$": 3771,
      " normal": 3772,
      "+$": 3773,
      " pm": 3774,
      " ru": 3775,
      "thing": 3776,
      " Matt": 3777,
      " itself": 3778,
      "\nSubtracting": 3779,
      " rolls": 3780,
      "ogether,": 3781,
      " jeans": 3782,
      "istry": 3783,
      ");\ndot(\"$": 3784,
      " Sarah": 3785,
      " corresponding": 3786,
      " simultaneously": 3787,
      "$.\nWe": 3788,
      "bur": 3789,
      " plates": 3790,
      " $AC": 3791,
      " purchases": 3792,
      "ically": 3793,
      "points": 3794,
      "graf[": 3795,
      " \"answer": 3796,
      ".)": 3797,
      "box": 3798,
      " tens": 3799,
      "isa": 3800,
      " dimes": 3801,
      "}{x^": 3802,
      " \"we": 3803,
      "indr": 3804,
      " rates": 3805,
      " D,": 3806,
      " depos": 3807,
      "cf": 3808,
      " throw": 3809,
      "}{n": 3810,
      " sheep": 3811,
      "pected": 3812,
      " suppl": 3813,
      "which": 3814,
      "mark": 3815,
      "abel(": 3816,
      "\\%$": 3817,
      "D$\",": 3818,
      " powers": 3819,
      " classes": 3820,
      " edge": 3821,
      " passengers": 3822,
      " $M": 3823,
      " fair": 3824,
      " lower": 3825,
      " vess": 3826,
      " colle": 3827,
      " liquid": 3828,
      "gest": 3829,
      "key": 3830,
      "r^": 3831,
      "uate": 3832,
      " too": 3833,
      "agram": 3834,
      "rench": 3835,
      " parallelogram": 3836,
      "A--B--C--": 3837,
      "\n\nThe": 3838,
      "rol": 3839,
      " origin": 3840,
      " Marc": 3841,
      " Mrs.": 3842,
      " chemistry": 3843,
      " tell": 3844,
      " main": 3845,
      " rou": 3846,
      " CD": 3847,
      " En": 3848,
      " congruent": 3849,
      " males": 3850,
      " rose": 3851,
      " loll": 3852,
      " number,": 3853,
      "rap": 3854,
      " \"if": 3855,
      " Sus": 3856,
      " fee": 3857,
      " adds": 3858,
      " lollip": 3859,
      "tor": 3860,
      " consist": 3861,
      " require": 3862,
      "For": 3863,
      " offer": 3864,
      " faces": 3865,
      "celes": 3866,
      " perform": 3867,
      " carr": 3868,
      "avid": 3869,
      " loan": 3870,
      " axis": 3871,
      " budget": 3872,
      " fit": 3873,
      " tennis": 3874,
      " rabb": 3875,
      " stay": 3876,
      " Sunday": 3877,
      "circle((": 3878,
      "y=": 3879,
      " $l": 3880,
      "as,": 3881,
      "osceles": 3882,
      " weekend": 3883,
      " apples,": 3884,
      "This": 3885,
      " bis": 3886,
      " feet.": 3887,
      " appro": 3888,
      "Note": 3889,
      " (n": 3890,
      " day:": 3891,
      "));\n[/asy]": 3892,
      " Pythagorean": 3893,
      " special": 3894,
      "hip": 3895,
      "time": 3896,
      " bic": 3897,
      " reaches": 3898,
      " AC": 3899,
      " teams": 3900,
      " assign": 3901,
      "gray(": 3902,
      "aultpen": 3903,
      " college": 3904,
      "It": 3905,
      "\\,": 3906,
      "ron": 3907,
      " penn": 3908,
      " x.\nWe": 3909,
      ".\nThey": 3910,
      " come": 3911,
      " \\\\\n&": 3912,
      " \\[\n": 3913,
      " replace": 3914,
      " episodes": 3915,
      " isosceles": 3916,
      "}$?": 3917,
      " brok": 3918,
      " tea": 3919,
      " doughn": 3920,
      " rd": 3921,
      "\\hline": 3922,
      "(X": 3923,
      "=true": 3924,
      "men": 3925,
      " ell": 3926,
      " nuts": 3927,
      " so\n\\[": 3928,
      "oci": 3929,
      "tha": 3930,
      " leaving": 3931,
      " principal": 3932,
      "con": 3933,
      " dat": 3934,
      " x\nThe": 3935,
      "ilies": 3936,
      " Ad": 3937,
      " jane": 3938,
      " alloy": 3939,
      " days.": 3940,
      "rs": 3941,
      " orders": 3942,
      " jan": 3943,
      " overall": 3944,
      "ramid": 3945,
      " opened": 3946,
      " route": 3947,
      "me": 3948,
      "top": 3949,
      " fenc": 3950,
      " zer": 3951,
      " phys": 3952,
      " defective": 3953,
      " apartment": 3954,
      " managers": 3955,
      " course": 3956,
      "mer": 3957,
      "osh": 3958,
      " $a=": 3959,
      " increasing": 3960,
      " brand": 3961,
      ".\nAdding": 3962,
      " draw((": 3963,
      " bedroom": 3964,
      "cribed": 3965,
      "vest": 3966,
      "ivers": 3967,
      "anda": 3968,
      " \"sol": 3969,
      "}.$$": 3970,
      " revolution": 3971,
      "-shir": 3972,
      " \"f": 3973,
      " Michael": 3974,
      " Dan": 3975,
      " playing": 3976,
      " $z$": 3977,
      " Thursday": 3978,
      ",\\!": 3979,
      "aff": 3980,
      "y)": 3981,
      " mus": 3982,
      " innings": 3983,
      " Jason": 3984,
      " Joe": 3985,
      " Gr": 3986,
      " meeting": 3987,
      "eeper": 3988,
      " cartons": 3989,
      " reflect": 3990,
      "acob": 3991,
      " one-third": 3992,
      " week?": 3993,
      " pep": 3994,
      "}}.\\]": 3995,
      " painted": 3996,
      "*(": 3997,
      "uce": 3998,
      " think": 3999,
      " amounts": 4000,
      " interior": 4001,
      " diagram": 4002,
      "},\\]": 4003,
      " units,": 4004,
      "X^": 4005,
      "ful": 4006,
      " wage": 4007,
      " cou": 4008,
      " ++": 4009,
      " eas": 4010,
      "ived": 4011,
      " left?": 4012,
      "));\nlabel(\"": 4013,
      " completely": 4014,
      " actually": 4015,
      " All": 4016,
      " costing": 4017,
      " altogether": 4018,
      " photos": 4019,
      " pure": 4020,
      " total.": 4021,
      " minus": 4022,
      " old,": 4023,
      " ounce": 4024,
      " directions": 4025,
      " engine": 4026,
      "den": 4027,
      "pr": 4028,
      " $ab": 4029,
      "ass,": 4030,
      "ipse": 4031,
      " doubles": 4032,
      " steps": 4033,
      " vehicles": 4034,
      "(t": 4035,
      "hod": 4036,
      "arn": 4037,
      " river": 4038,
      ");\nB": 4039,
      " sheets": 4040,
      "so,": 4041,
      " subtracted": 4042,
      " pyramid": 4043,
      "keeper": 4044,
      " hat": 4045,
      " rice": 4046,
      "uding": 4047,
      "a,b": 4048,
      "(A,": 4049,
      "side": 4050,
      " pal": 4051,
      " fall": 4052,
      " -$": 4053,
      "add": 4054,
      " comb": 4055,
      " $x_": 4056,
      "iew": 4057,
      "operator": 4058,
      " enter": 4059,
      " Wednesday,": 4060,
      ")-": 4061,
      "\\ne": 4062,
      " nove": 4063,
      " seven": 4064,
      "aper": 4065,
      "ext,": 4066,
      " long,": 4067,
      " apply": 4068,
      " evenly": 4069,
      " winning": 4070,
      "Hence,": 4071,
      "light": 4072,
      " puts": 4073,
      " \"g": 4074,
      "ountain": 4075,
      " inches.": 4076,
      " prefer": 4077,
      "EF": 4078,
      "ges": 4079,
      "{C": 4080,
      "oups": 4081,
      "oline": 4082,
      " lemonade": 4083,
      " motor": 4084,
      " ~": 4085,
      " $a$,": 4086,
      "minute": 4087,
      " rounds": 4088,
      " beef": 4089,
      ");\nC": 4090,
      "week": 4091,
      " Frank": 4092,
      "ged": 4093,
      "ena": 4094,
      " (s": 4095,
      " numbers,": 4096,
      "{pmatrix}.\\]": 4097,
      " deep": 4098,
      " harvest": 4099,
      "*$": 4100,
      " fact": 4101,
      " lies": 4102,
      "resh": 4103,
      " Luc": 4104,
      " <=": 4105,
      " fraction,": 4106,
      " constru": 4107,
      " biology": 4108,
      " sticks": 4109,
      " notice": 4110,
      " Gre": 4111,
      " potatoes": 4112,
      " puppies": 4113,
      " ded": 4114,
      " daught": 4115,
      "\nThere": 4116,
      "area": 4117,
      " pounds,": 4118,
      " purple": 4119,
      " saves": 4120,
      " modul": 4121,
      "x,": 4122,
      " hcf": 4123,
      " (A": 4124,
      " rope": 4125,
      " TV": 4126,
      " plays": 4127,
      " respectively.": 4128,
      " assuming": 4129,
      "-coordinate": 4130,
      " mathematics": 4131,
      "\nD": 4132,
      " cycle": 4133,
      " lb": 4134,
      " BC": 4135,
      " triangle,": 4136,
      "balls": 4137,
      " suppose": 4138,
      " shows": 4139,
      " aftern": 4140,
      " groups": 4141,
      " commission": 4142,
      " considering": 4143,
      "\n####": 4144,
      " implies": 4145,
      "X$": 4146,
      "c|": 4147,
      "iction": 4148,
      " vill": 4149,
      " $b$,": 4150,
      " sandwich": 4151,
      " destination": 4152,
      " data": 4153,
      "ze": 4154,
      " yield": 4155,
      " interv": 4156,
      " Then,": 4157,
      " shopkeeper": 4158,
      "________": 4159,
      " move": 4160,
      "ontal": 4161,
      " lab": 4162,
      " prov": 4163,
      " Harry": 4164,
      " Jo": 4165,
      "izontal": 4166,
      " Every": 4167,
      " offic": 4168,
      " paintings": 4169,
      " grocery": 4170,
      "/day": 4171,
      " cow": 4172,
      " houses": 4173,
      " yard": 4174,
      " key": 4175,
      "endent": 4176,
      "\\math": 4177,
      " $a+b": 4178,
      " earning": 4179,
      " old.": 4180,
      " discounted": 4181,
      "def": 4182,
      " against": 4183,
      " vessel": 4184,
      "*sqrt(": 4185,
      " tile": 4186,
      " sen": 4187,
      "ites": 4188,
      " Bet": 4189,
      " results": 4190,
      " Paul": 4191,
      "ize=": 4192,
      "\nFinally,": 4193,
      "scale": 4194,
      " afternoon": 4195,
      "E,": 4196,
      "ding": 4197,
      " fore": 4198,
      ".\nR": 4199,
      " maximize": 4200,
      " fills": 4201,
      " watch": 4202,
      ".\nCombining": 4203,
      "MP(\"": 4204,
      " have:\n": 4205,
      "),(": 4206,
      " crick": 4207,
      " units.": 4208,
      " students,": 4209,
      " homework": 4210,
      " street": 4211,
      "tle": 4212,
      "wise": 4213,
      "x_": 4214,
      " came": 4215,
      " pin": 4216,
      " \"area": 4217,
      " Be": 4218,
      " become": 4219,
      "ikes": 4220,
      " trucks": 4221,
      " owner": 4222,
      " annually": 4223,
      "\nNow,": 4224,
      "-up": 4225,
      " scoo": 4226,
      " chocol": 4227,
      "Arrows(": 4228,
      " teachers": 4229,
      " participants": 4230,
      " music": 4231,
      "Circle((": 4232,
      "{P": 4233,
      "arl": 4234,
      " gym": 4235,
      " hex": 4236,
      "osed": 4237,
      "\\cot": 4238,
      " remains": 4239,
      " arc": 4240,
      " Ge": 4241,
      " attended": 4242,
      " horizontal": 4243,
      " ends": 4244,
      " peaches": 4245,
      " flo": 4246,
      " deal": 4247,
      " electric": 4248,
      "des": 4249,
      "lings": 4250,
      " exper": 4251,
      " Jane": 4252,
      " Now": 4253,
      " respective": 4254,
      " watermelon": 4255,
      "aultpen(": 4256,
      "ror": 4257,
      " oz": 4258,
      " Suppose": 4259,
      " shares": 4260,
      " Con": 4261,
      " bricks": 4262,
      " acres": 4263,
      " measuring": 4264,
      " depart": 4265,
      " tomato": 4266,
      " vacation": 4267,
      " wait": 4268,
      "jection": 4269,
      "n,": 4270,
      "inc": 4271,
      " cash": 4272,
      " $D$": 4273,
      " Cl": 4274,
      " wheels": 4275,
      ")$?": 4276,
      " meaning": 4277,
      " allowance": 4278,
      "ais": 4279,
      " Sh": 4280,
      " carp": 4281,
      " according": 4282,
      " segments": 4283,
      " expensive": 4284,
      " maj": 4285,
      "@{": 4286,
      "ators": 4287,
      " Ol": 4288,
      " country": 4289,
      " visitors": 4290,
      ")..(": 4291,
      " vegetables": 4292,
      "g(": 4293,
      " class,": 4294,
      " marble": 4295,
      " slower": 4296,
      " install": 4297,
      " consumes": 4298,
      " geometric": 4299,
      "lor": 4300,
      "list": 4301,
      " camp": 4302,
      " Billy": 4303,
      " position": 4304,
      " litre": 4305,
      " spending": 4306,
      " reduction": 4307,
      " football": 4308,
      " joined": 4309,
      " baked": 4310,
      " string": 4311,
      " rhomb": 4312,
      "O--": 4313,
      " dividend": 4314,
      " seas": 4315,
      " integers,": 4316,
      " passing": 4317,
      " gasoline": 4318,
      " chocolates": 4319,
      "uration": 4320,
      " service": 4321,
      "\\operator": 4322,
      "name": 4323,
      " valid": 4324,
      " has:": 4325,
      " chance": 4326,
      " During": 4327,
      "\nSubstituting": 4328,
      " $p$": 4329,
      " coefficients": 4330,
      "\\operatorname": 4331,
      " sym": 4332,
      "ers.": 4333,
      " X^": 4334,
      " method": 4335,
      " them,": 4336,
      " paying": 4337,
      " throws": 4338,
      " combinations": 4339,
      " types": 4340,
      "ruary": 4341,
      " indep": 4342,
      " shorter": 4343,
      " °": 4344,
      "alse": 4345,
      "aries": 4346,
      " et": 4347,
      " priced": 4348,
      " spe": 4349,
      " everything": 4350,
      ")}\\": 4351,
      " create": 4352,
      "\nThis": 4353,
      " ellipse": 4354,
      ")(-": 4355,
      "p,": 4356,
      " $T": 4357,
      " socc": 4358,
      " \"l": 4359,
      " expected": 4360,
      " capital": 4361,
      " Christ": 4362,
      " determin": 4363,
      "-inter": 4364,
      "uz": 4365,
      "ishes": 4366,
      " gifts": 4367,
      " rup": 4368,
      " doing": 4369,
      " Because": 4370,
      " miles,": 4371,
      " driver": 4372,
      "}.$\n\n": 4373,
      " consumed": 4374,
      " village": 4375,
      "//": 4376,
      "W);\nlabel(\"": 4377,
      "ella": 4378,
      " election": 4379,
      " combine": 4380,
      " hexagon": 4381,
      "\\gcd": 4382,
      "cal": 4383,
      "label(": 4384,
      " ce": 4385,
      " rep": 4386,
      " very": 4387,
      " bears": 4388,
      " stack": 4389,
      "anging": 4390,
      " seat": 4391,
      " month.": 4392,
      "));\ndot((": 4393,
      " caps": 4394,
      " woman": 4395,
      " families": 4396,
      " eval": 4397,
      "-hour": 4398,
      "i$": 4399,
      "negative": 4400,
      "er.": 4401,
      "cel": 4402,
      ":\n(": 4403,
      " \\|": 4404,
      " buil": 4405,
      " integers.": 4406,
      "eese": 4407,
      "$\nDividing": 4408,
      " turned": 4409,
      " etc": 4410,
      "\nNow": 4411,
      "By": 4412,
      "{y": 4413,
      " snow": 4414,
      " stuff": 4415,
      " Solving": 4416,
      " shaded": 4417,
      " people,": 4418,
      " cookie": 4419,
      " donuts": 4420,
      " rented": 4421,
      " proportional": 4422,
      "bra": 4423,
      "ten": 4424,
      "zero": 4425,
      "onds": 4426,
      " x.": 4427,
      " organ": 4428,
      " compute": 4429,
      "ody": 4430,
      " include": 4431,
      " approximate": 4432,
      " stopp": 4433,
      " doughnuts": 4434,
      " natur": 4435,
      " that's": 4436,
      " consume": 4437,
      " Friday,": 4438,
      " exponent": 4439,
      " physics": 4440,
      "Next,": 4441,
      "}^{": 4442,
      " turt": 4443,
      " bake": 4444,
      " dry": 4445,
      "achel": 4446,
      "}$\",": 4447,
      " year.": 4448,
      " $f^{-": 4449,
      ");\n[/asy]\n\n": 4450,
      " desired": 4451,
      "ique": 4452,
      " dropped": 4453,
      " pills": 4454,
      " independent": 4455,
      "&$": 4456,
      "yn": 4457,
      "orrect": 4458,
      " (x^": 4459,
      " equations,": 4460,
      " subjects": 4461,
      " integer,": 4462,
      " envelop": 4463,
      " brownies": 4464,
      " batch": 4465,
      " bulbs": 4466,
      "/week": 4467,
      "Equ": 4468,
      " b)": 4469,
      " fab": 4470,
      "asp": 4471,
      " repair": 4472,
      " primes": 4473,
      " Ju": 4474,
      " Jess": 4475,
      " across": 4476,
      " board": 4477,
      " fabric": 4478,
      ",.": 4479,
      "col": 4480,
      "rig": 4481,
      "ration": 4482,
      "yan": 4483,
      "owever,": 4484,
      " meals": 4485,
      " flag": 4486,
      " goals": 4487,
      " handed": 4488,
      " $ABC$": 4489,
      " hotel": 4490,
      "graph(f": 4491,
      " rule": 4492,
      " rhombus": 4493,
      "inds": 4494,
      " $.": 4495,
      " animal": 4496,
      "olute": 4497,
      " purchasing": 4498,
      "\\neq": 4499,
      "(real": 4500,
      ")!": 4501,
      "mall": 4502,
      "{z": 4503,
      " bob": 4504,
      " $Q": 4505,
      "urance": 4506,
      " flower": 4507,
      "{aligned": 4508,
      " element": 4509,
      " $N$": 4510,
      " hambur": 4511,
      " wire": 4512,
      ".\nD": 4513,
      " lin": 4514,
      " lad": 4515,
      " lie": 4516,
      "}$\n$": 4517,
      ");\nfill": 4518,
      " finding": 4519,
      " Max": 4520,
      " $a,$": 4521,
      " colors": 4522,
      " $n=": 4523,
      " shopping": 4524,
      " bracelets": 4525,
      " bacter": 4526,
      " muffins": 4527,
      "\nDividing": 4528,
      "}c": 4529,
      "itte": 4530,
      "ils": 4531,
      " rac": 4532,
      " yearly": 4533,
      " word": 4534,
      " Jacks": 4535,
      " Pat": 4536,
      " deck": 4537,
      " non-": 4538,
      " included": 4539,
      "));\n\nlabel(\"$": 4540,
      "\nSimplifying": 4541,
      " modulo": 4542,
      "scale(": 4543,
      "iet": 4544,
      "uch": 4545,
      " wrap": 4546,
      " coll": 4547,
      " cuts": 4548,
      " hall": 4549,
      " herself": 4550,
      "\nThat": 4551,
      " them.": 4552,
      " Ke": 4553,
      " equation:\nx": 4554,
      " record": 4555,
      " absolute": 4556,
      "shift(": 4557,
      " enc": 4558,
      "\\$": 4559,
      " gar": 4560,
      " front": 4561,
      " adj": 4562,
      " weighing": 4563,
      " represented": 4564,
      " charged": 4565,
      " Un": 4566,
      "From": 4567,
      " tenth": 4568,
      "on,": 4569,
      " prices": 4570,
      " however": 4571,
      " concl": 4572,
      " Bri": 4573,
      " positive,": 4574,
      " cherry": 4575,
      " soccer": 4576,
      " determinant": 4577,
      ").\n": 4578,
      "sin": 4579,
      "orge": 4580,
      " \"r": 4581,
      " conc": 4582,
      "plane": 4583,
      " minute,": 4584,
      " walls": 4585,
      " conditions": 4586,
      " Using": 4587,
      " revolutions": 4588,
      "AC": 4589,
      "most": 4590,
      "o,": 4591,
      "}}$.\nThe": 4592,
      " aver": 4593,
      "ald": 4594,
      "oles": 4595,
      " altitude": 4596,
      " stripes": 4597,
      " trapezoid": 4598,
      " ir": 4599,
      "[asy]": 4600,
      " lets": 4601,
      " x:\n(": 4602,
      " relatively": 4603,
      " representation": 4604,
      "umption": 4605,
      "hoose": 4606,
      " cm);\n\npair": 4607,
      "$\n\n": 4608,
      "dy": 4609,
      ".\nL": 4610,
      "\\choose": 4611,
      " cookies,": 4612,
      " typ": 4613,
      "annah": 4614,
      " Betty": 4615,
      " natural": 4616,
      "(y": 4617,
      "P,": 4618,
      "lic": 4619,
      " cra": 4620,
      " $[": 4621,
      " fresh": 4622,
      " tower": 4623,
      " remainders": 4624,
      " mary": 4625,
      " points,": 4626,
      " selecting": 4627,
      " clothing": 4628,
      " grocer": 4629,
      "*pi": 4630,
      "put": 4631,
      " name": 4632,
      " \"w": 4633,
      " altern": 4634,
      " Je": 4635,
      " few": 4636,
      " employed": 4637,
      " sixth": 4638,
      " kilometer": 4639,
      " multiplication": 4640,
      "{n}{": 4641,
      "(r": 4642,
      "f^{-": 4643,
      " cere": 4644,
      " mess": 4645,
      " As": 4646,
      " deb": 4647,
      ".\nHis": 4648,
      "\nGiven": 4649,
      " fac": 4650,
      " hun": 4651,
      "--cycle": 4652,
      "anglemark": 4653,
      " Out": 4654,
      " weights": 4655,
      "ycles": 4656,
      " returned": 4657,
      " distributed": 4658,
      "xpanding": 4659,
      "=x": 4660,
      " tag": 4661,
      " tips": 4662,
      "requ": 4663,
      " AM": 4664,
      " S);\nlabel(\"$": 4665,
      "ie's": 4666,
      " crates": 4667,
      " consumption": 4668,
      "_{k": 4669,
      " thrice": 4670,
      " mango": 4671,
      " recipe": 4672,
      " help": 4673,
      " ess": 4674,
      ",i": 4675,
      "{t": 4676,
      " is\n\\[": 4677,
      " ll": 4678,
      " asks": 4679,
      ":\n\n": 4680,
      " E,": 4681,
      ".\\]Then": 4682,
      "\n$$": 4683,
      " $b=": 4684,
      " donated": 4685,
      " babys": 4686,
      " necklaces": 4687,
      "$.\nTo": 4688,
      "x.\nThe": 4689,
      "rea": 4690,
      "ille": 4691,
      " shift": 4692,
      " Jill": 4693,
      " notes": 4694,
      " three-digit": 4695,
      " El": 4696,
      " Rachel": 4697,
      "$.\nDividing": 4698,
      " saving": 4699,
      " catches": 4700,
      " highway": 4701,
      " towels": 4702,
      " model": 4703,
      " Thursday,": 4704,
      " january": 4705,
      "fontsize(": 4706,
      "ke": 4707,
      "van": 4708,
      " $R": 4709,
      "ety": 4710,
      " lap": 4711,
      " hourly": 4712,
      " conn": 4713,
      " sector": 4714,
      " except": 4715,
      " P,": 4716,
      "teen": 4717,
      " drank": 4718,
      " investing": 4719,
      " combination": 4720,
      " taxes": 4721,
      " Alice": 4722,
      " copper": 4723,
      " steak": 4724,
      " recipr": 4725,
      " peanut": 4726,
      " Susan": 4727,
      " approach": 4728,
      "corn": 4729,
      "{d": 4730,
      " bird": 4731,
      " picks": 4732,
      " stat": 4733,
      "inda": 4734,
      " chip": 4735,
      " \\,": 4736,
      " Jacob": 4737,
      " But": 4738,
      " grow": 4739,
      " completes": 4740,
      " pennies": 4741,
      "acent": 4742,
      "ached": 4743,
      "owed": 4744,
      " \"b": 4745,
      " Wh": 4746,
      " outside": 4747,
      " popcorn": 4748,
      " substituting": 4749,
      " fencing": 4750,
      "(i": 4751,
      "^x": 4752,
      "ties": 4753,
      " wins": 4754,
      " mush": 4755,
      " dad": 4756,
      "Therefore,": 4757,
      "quare": 4758,
      "ided": 4759,
      " soft": 4760,
      " $n$,": 4761,
      " display": 4762,
      " $b,$": 4763,
      " $g(": 4764,
      " trying": 4765,
      " lollipops": 4766,
      "n^": 4767,
      "nel": 4768,
      " ds": 4769,
      "ech": 4770,
      " Tony": 4771,
      " formula,": 4772,
      " carrots": 4773,
      " \n": 4774,
      "ux": 4775,
      " tun": 4776,
      " ben": 4777,
      " none": 4778,
      "icol": 4779,
      " lake": 4780,
      " numbers.": 4781,
      " slice": 4782,
      ".\nHer": 4783,
      "{A}^": 4784,
      " vertical": 4785,
      " $d$": 4786,
      " operation": 4787,
      " exponents": 4788,
      " stoppages": 4789,
      " sqrt": 4790,
      " fire": 4791,
      " onto": 4792,
      " May": 4793,
      " married": 4794,
      " committe": 4795,
      " Kim": 4796,
      " books,": 4797,
      "\\dotsb": 4798,
      ";\nreal": 4799,
      " buckets": 4800,
      " floors": 4801,
      " text": 4802,
      " mountain": 4803,
      " (X": 4804,
      " late": 4805,
      " Substituting": 4806,
      " remove": 4807,
      " days?": 4808,
      " wrong": 4809,
      " metal": 4810,
      " flight": 4811,
      " invests": 4812,
      ")(x+": 4813,
      " Martha": 4814,
      " Janet": 4815,
      " Calcul": 4816,
      " Adam": 4817,
      "(A": 4818,
      "Multiplying": 4819,
      "quaring": 4820,
      " Simplify": 4821,
      " two-digit": 4822,
      "apor": 4823,
      " fund": 4824,
      " inscribed": 4825,
      " $(x+": 4826,
      " Jenny": 4827,
      " swimming": 4828,
      " program": 4829,
      "\nR": 4830,
      ")\nx": 4831,
      "+d": 4832,
      " ant": 4833,
      " jun": 4834,
      " jog": 4835,
      " Jake": 4836,
      "days": 4837,
      " money,": 4838,
      " newsp": 4839,
      " finds": 4840,
      " printer": 4841,
      " standing": 4842,
      " $S$": 4843,
      " baby": 4844,
      " \"number": 4845,
      "aultpen(linewidth(": 4846,
      " bacteria": 4847,
      " conclude": 4848,
      "%,": 4849,
      "^k": 4850,
      "ws": 4851,
      " burn": 4852,
      " duration": 4853,
      " numbered": 4854,
      " kgs": 4855,
      "),Arrows(": 4856,
      "onsider": 4857,
      " grape": 4858,
      " {\n\n": 4859,
      " devi": 4860,
      " travelling": 4861,
      ")(x^": 4862,
      " insurance": 4863,
      " windows": 4864,
      "ailed": 4865,
      " cricket": 4866,
      " cereal": 4867,
      "(b": 4868,
      ")$\",": 4869,
      "{gcd": 4870,
      " x$": 4871,
      " geese": 4872,
      " \"m": 4873,
      " concent": 4874,
      " Ph": 4875,
      " decor": 4876,
      " evapor": 4877,
      "\\|^": 4878,
      " fixed": 4879,
      "-a": 4880,
      "k^": 4881,
      "{BC": 4882,
      " ow": 4883,
      " best": 4884,
      " bats": 4885,
      " ha": 4886,
      " Jose": 4887,
      " Don": 4888,
      " $AD": 4889,
      " simply": 4890,
      "{cis": 4891,
      " servings": 4892,
      "{w}": 4893,
      " est": 4894,
      "P--": 4895,
      "{u": 4896,
      " of\n\\[": 4897,
      " b,": 4898,
      "alk": 4899,
      "left": 4900,
      "itor": 4901,
      " (b": 4902,
      " number.": 4903,
      "osp": 4904,
      " solved": 4905,
      " Meg": 4906,
      " miles.": 4907,
      "ept": 4908,
      " Ro": 4909,
      "ember": 4910,
      " fractions": 4911,
      " Anna": 4912,
      " english": 4913,
      " bathroom": 4914,
      "\n-": 4915,
      "ral": 4916,
      "x\nTo": 4917,
      " tub": 4918,
      " care": 4919,
      " bx": 4920,
      ");\nD": 4921,
      " unique": 4922,
      " Three": 4923,
      "anna": 4924,
      " drawing": 4925,
      " supplies": 4926,
      " simpl": 4927,
      " mice": 4928,
      " f(x)": 4929,
      "oured": 4930,
      " sod": 4931,
      " it.": 4932,
      " Jay": 4933,
      " feb": 4934,
      "ax^": 4935,
      " flat": 4936,
      " associ": 4937,
      "icksAr": 4938,
      " $\\{": 4939,
      " $g(x)": 4940,
      " repeated": 4941,
      " calls": 4942,
      " hundred": 4943,
      "book": 4944,
      "{(-": 4945,
      " bon": 4946,
      " x}": 4947,
      "}{y": 4948,
      "\\cup": 4949,
      " Sally": 4950,
      " shape": 4951,
      " incorrect": 4952,
      " choosing": 4953,
      " dolls": 4954,
      " born": 4955,
      " Jackson": 4956,
      " mushroom": 4957,
      "C$": 4958,
      "fast": 4959,
      "nic": 4960,
      "reen": 4961,
      " mer": 4962,
      " hit": 4963,
      " squir": 4964,
      "ured": 4965,
      " Pl": 4966,
      " Karen": 4967,
      "));\ndraw((-": 4968,
      " Then\n\\[": 4969,
      " Also,": 4970,
      "ircle(": 4971,
      "-shirts": 4972,
      " dedu": 4973,
      "-intercept": 4974,
      " messages": 4975,
      "back": 4976,
      "ians": 4977,
      " hist": 4978,
      " inf": 4979,
      "outs": 4980,
      "as.": 4981,
      " gam": 4982,
      " lose": 4983,
      " Mart": 4984,
      " abc": 4985,
      " Of": 4986,
      "));\ndraw(circle((": 4987,
      "-hand": 4988,
      " Emily": 4989,
      " favorable": 4990,
      " adjacent": 4991,
      "-y": 4992,
      "utes": 4993,
      " y)": 4994,
      " kept": 4995,
      "gebra": 4996,
      " Half": 4997,
      " trips": 4998,
      " intern": 4999,
      " goats": 5000,
      " orangeade": 5001,
      " $s$": 5002,
      " Steve": 5003,
      " tagged": 5004,
      ")),": 5005,
      " fram": 5006,
      " hon": 5007,
      " day?": 5008,
      "iked": 5009,
      " copies": 5010,
      " basic": 5011,
      " example,": 5012,
      " ‡": 5013,
      " tv": 5014,
      " fold": 5015,
      "ices,": 5016,
      "berry": 5017,
      " Hen": 5018,
      "ocated": 5019,
      " blank": 5020,
      " evening": 5021,
      " medium": 5022,
      " simplified": 5023,
      " Saturday,": 5024,
      "\nMultiplying": 5025,
      " speak": 5026,
      "r_": 5027,
      "tures": 5028,
      " cam": 5029,
      "ed.": 5030,
      " spots": 5031,
      "\\]for": 5032,
      "{pmatrix}.$": 5033,
      "oke": 5034,
      " breakfast": 5035,
      " expand": 5036,
      "anny": 5037,
      " zeros": 5038,
      " (since": 5039,
      "@{}c": 5040,
      "?\n\n": 5041,
      "ware": 5042,
      " cell": 5043,
      " dish": 5044,
      " ey": 5045,
      "abs": 5046,
      " Josh": 5047,
      " times,": 5048,
      " salad": 5049,
      " scale": 5050,
      "rightanglemark": 5051,
      " write:\n$": 5052,
      "vision": 5053,
      " error": 5054,
      " turtles": 5055,
      "*dir(": 5056,
      "more": 5057,
      "{I": 5058,
      "ene": 5059,
      " hosp": 5060,
      " that,": 5061,
      " yester": 5062,
      "raph": 5063,
      "ament": 5064,
      " frogs": 5065,
      " writing": 5066,
      " Lisa": 5067,
      " adm": 5068,
      " excluding": 5069,
      "rolled": 5070,
      " symmet": 5071,
      " bad": 5072,
      " duck": 5073,
      ".\n\nThe": 5074,
      " germ": 5075,
      " Time": 5076,
      " $x,$": 5077,
      " output": 5078,
      " balls,": 5079,
      " minute.": 5080,
      " degrees.": 5081,
      " laund": 5082,
      " horse": 5083,
      " absent": 5084,
      " envelopes": 5085,
      " Calculate": 5086,
      "kg": 5087,
      "oz": 5088,
      " mac": 5089,
      "acy": 5090,
      "olly": 5091,
      " van": 5092,
      " prom": 5093,
      " distances": 5094,
      "ugging": 5095,
      " investments": 5096,
      " sandy": 5097,
      "+C": 5098,
      " hole": 5099,
      "ords": 5100,
      "umes": 5101,
      " sums": 5102,
      " long.": 5103,
      " Kat": 5104,
      " tells": 5105,
      "$.\nSubstituting": 5106,
      " crack": 5107,
      " east": 5108,
      "}{(": 5109,
      " stor": 5110,
      " years.": 5111,
      " left,": 5112,
      " Price": 5113,
      "$.\n\n": 5114,
      " prep": 5115,
      " defin": 5116,
      " nickels": 5117,
      " directly": 5118,
      " Jeff": 5119,
      "a+b": 5120,
      "hing": 5121,
      "tons": 5122,
      " tin": 5123,
      " $G": 5124,
      " easy": 5125,
      "umps": 5126,
      " ram": 5127,
      " hect": 5128,
      " stations": 5129,
      " chap": 5130,
      " grass": 5131,
      " points.": 5132,
      "binom": 5133,
      ");\ndraw(A--": 5134,
      " gains": 5135,
      "lin": 5136,
      " bou": 5137,
      " failed": 5138,
      " y_": 5139,
      "(x/": 5140,
      "{a^": 5141,
      " press": 5142,
      " reduce": 5143,
      "_n$": 5144,
      "itchen": 5145,
      " department": 5146,
      " aqu": 5147,
      " french": 5148,
      "asks": 5149,
      ".\nP": 5150,
      "ific": 5151,
      " exerc": 5152,
      " Is": 5153,
      " marbles,": 5154,
      " trip,": 5155,
      "A$\",A,": 5156,
      " \"given": 5157,
      "CM": 5158,
      " drops": 5159,
      " together,": 5160,
      ");\ndraw((-": 5161,
      "\nPercentage": 5162,
      " find:\n$X": 5163,
      "uzz": 5164,
      " rupee": 5165,
      " built": 5166,
      ").\nWe": 5167,
      " nine": 5168,
      "rie": 5169,
      " SW);\nlabel(\"$": 5170,
      " monkey": 5171,
      " now?": 5172,
      " values,": 5173,
      " magn": 5174,
      "{X}{": 5175,
      "/s": 5176,
      "ption": 5177,
      "head": 5178,
      " wife": 5179,
      " bean": 5180,
      " cancel": 5181,
      " kitchen": 5182,
      " spaces": 5183,
      "ulticol": 5184,
      " buttons": 5185,
      " Rob": 5186,
      " given:\nCost": 5187,
      " gumballs": 5188,
      " Andrew": 5189,
      "\\multicol": 5190,
      "\\multicolumn": 5191,
      "down": 5192,
      "tri": 5193,
      "x$\",": 5194,
      " ing": 5195,
      " prize": 5196,
      " states": 5197,
      " this,": 5198,
      " follows:\nAmount": 5199,
      " nonnegative": 5200,
      " arranged": 5201,
      " Viet": 5202,
      " game,": 5203,
      " intersects": 5204,
      " edges": 5205,
      " evaluate": 5206,
      "+B": 5207,
      "round": 5208,
      "ison": 5209,
      " puzz": 5210,
      " toss": 5211,
      "iling": 5212,
      "unc": 5213,
      ".\\]S": 5214,
      "\\dbinom": 5215,
      " packets": 5216,
      " moves": 5217,
      " rounded": 5218,
      "paring": 5219,
      " $t$": 5220,
      " cleaning": 5221,
      ".\nWhen": 5222,
      " hospital": 5223,
      ",c": 5224,
      " bound": 5225,
      " (in": 5226,
      ".\n$": 5227,
      " square,": 5228,
      "ieve": 5229,
      " Ryan": 5230,
      " New": 5231,
      " enrolled": 5232,
      " nonzero": 5233,
      " import": 5234,
      " $ABCD$": 5235,
      " semic": 5236,
      " nickel": 5237,
      " favorite": 5238,
      " …": 5239,
      "+n": 5240,
      "E$\",": 5241,
      "p=": 5242,
      "venth": 5243,
      "{m": 5244,
      " theorem": 5245,
      " x^{": 5246,
      "ir(-": 5247,
      " stem": 5248,
      " cocon": 5249,
      " algebra": 5250,
      " Will": 5251,
      " pounds.": 5252,
      " $(a,b": 5253,
      "}}=": 5254,
      " finally": 5255,
      " load": 5256,
      " said": 5257,
      "),S);\nlabel(\"": 5258,
      " carton": 5259,
      "Arrow(": 5260,
      " rabbits": 5261,
      " bouqu": 5262,
      "/x": 5263,
      "{D": 5264,
      "rels": 5265,
      " $E": 5266,
      " answer\"": 5267,
      " beach": 5268,
      "akes,": 5269,
      " Finally,": 5270,
      " sees": 5271,
      "tem": 5272,
      " N);\nlabel(\"$": 5273,
      " class.": 5274,
      " Kay": 5275,
      " cookies.": 5276,
      " baskets": 5277,
      " $AB$": 5278,
      " magaz": 5279,
      " pints": 5280,
      " Vieta's": 5281,
      "{k": 5282,
      " fell": 5283,
      " x\nLet's": 5284,
      " MB": 5285,
      " D(": 5286,
      "rict": 5287,
      " Maria": 5288,
      " neighborh": 5289,
      " ⇔": 5290,
      "+x": 5291,
      "path": 5292,
      " bun": 5293,
      " pupp": 5294,
      " inning": 5295,
      "abc": 5296,
      "cted": 5297,
      "dot(\"$": 5298,
      " doct": 5299,
      " $xy": 5300,
      " Mel": 5301,
      " compon": 5302,
      " box,": 5303,
      " little": 5304,
      " containers": 5305,
      " distribute": 5306,
      " eggs,": 5307,
      " rides": 5308,
      " similarly": 5309,
      " mater": 5310,
      " stars": 5311,
      "ended": 5312,
      "ending": 5313,
      " amount,": 5314,
      "ie,": 5315,
      " $n^": 5316,
      "{b})": 5317,
      " north": 5318,
      " stops": 5319,
      "\nThus,": 5320,
      " competition": 5321,
      " material": 5322,
      "\nO": 5323,
      "-(": 5324,
      "heck": 5325,
      " cast": 5326,
      "asts": 5327,
      " lent": 5328,
      " living": 5329,
      "irds": 5330,
      " yog": 5331,
      " \\$": 5332,
      " $x$.": 5333,
      " NE": 5334,
      " friends.": 5335,
      " print": 5336,
      " $\\$$": 5337,
      " Sunday,": 5338,
      "ottom": 5339,
      " consisting": 5340,
      " bicycle": 5341,
      "house": 5342,
      "rimin": 5343,
      " panc": 5344,
      ".\nThen": 5345,
      " time.": 5346,
      " reser": 5347,
      " writes": 5348,
      " discrimin": 5349,
      " offers": 5350,
      "enny": 5351,
      "\nSo,": 5352,
      " quadrilateral": 5353,
      " occur": 5354,
      " closest": 5355,
      " siblings": 5356,
      "{r": 5357,
      " tail": 5358,
      "eric": 5359,
      " ca": 5360,
      " foc": 5361,
      " dom": 5362,
      " revers": 5363,
      " remember": 5364,
      " everyone": 5365,
      " profess": 5366,
      " shared": 5367,
      " John's": 5368,
      "\\geq": 5369,
      " riding": 5370,
      "B$\",B,": 5371,
      " connect": 5372,
      "yr": 5373,
      " supp": 5374,
      " mel": 5375,
      "arr": 5376,
      " rocks": 5377,
      "ounce": 5378,
      " jars": 5379,
      "),dashed": 5380,
      "));\nfill": 5381,
      " scar": 5382,
      " rode": 5383,
      "ordan": 5384,
      "ency": 5385,
      " polled": 5386,
      " decreases": 5387,
      "ittens": 5388,
      ";\n\nA": 5389,
      " Julia": 5390,
      " situation.\nWe": 5391,
      " Theorem,": 5392,
      "},\\]so": 5393,
      " babysit": 5394,
      "$.\nSimplifying,": 5395,
      "\\ar": 5396,
      " fiction": 5397,
      " kid": 5398,
      " attem": 5399,
      "ublic": 5400,
      "izes": 5401,
      " flip": 5402,
      "{AC": 5403,
      "-four": 5404,
      " surveyed": 5405,
      " reciprocal": 5406,
      " batsman": 5407,
      " merch": 5408,
      " hectares": 5409,
      " discriminant": 5410,
      ",ym": 5411,
      "=(-": 5412,
      "Find": 5413,
      "ios": 5414,
      "well": 5415,
      " bakes": 5416,
      " might": 5417,
      "or,": 5418,
      " n^": 5419,
      "otice": 5420,
      " wholes": 5421,
      "}$.\nTherefore,": 5422,
      " La": 5423,
      " contained": 5424,
      " $f$": 5425,
      " overtime": 5426,
      " formula:\n": 5427,
      "athan": 5428,
      " \"there": 5429,
      " tests": 5430,
      " arrangements": 5431,
      " shells": 5432,
      " continues": 5433,
      " missing": 5434,
      " Megan": 5435,
      " ut": 5436,
      " tails": 5437,
      " david": 5438,
      " tourn": 5439,
      "itches": 5440,
      " laps": 5441,
      " Sc": 5442,
      " minimize": 5443,
      " carried": 5444,
      " months,": 5445,
      " cm,": 5446,
      " gross": 5447,
      " teasp": 5448,
      "ustin": 5449,
      " collects": 5450,
      " Carla": 5451,
      "B,C,": 5452,
      " occup": 5453,
      " youngest": 5454,
      " burgers": 5455,
      "{M}": 5456,
      " senior": 5457,
      "En": 5458,
      "m,": 5459,
      " somet": 5460,
      " island": 5461,
      "illa": 5462,
      "$,\n": 5463,
      "aged": 5464,
      "aves": 5465,
      " red,": 5466,
      " $x$-axis": 5467,
      " volumes": 5468,
      "\\lceil": 5469,
      " store,": 5470,
      " satisfied": 5471,
      " serving": 5472,
      "\\rceil": 5473,
      "-foot": 5474,
      " parent": 5475,
      " semi": 5476,
      " Andy": 5477,
      " daughter": 5478,
      "-t": 5479,
      "n)": 5480,
      "{R": 5481,
      "}$$": 5482,
      " bills,": 5483,
      " watched": 5484,
      " $z^": 5485,
      " planning": 5486,
      " visited": 5487,
      "board": 5488,
      " palindr": 5489,
      " officers": 5490,
      "!}": 5491,
      "'s,": 5492,
      "atio": 5493,
      " push": 5494,
      " --": 5495,
      "enty": 5496,
      " asym": 5497,
      " contract": 5498,
      " Bren": 5499,
      ".$\n": 5500,
      ",$\n\\[": 5501,
      " integer.": 5502,
      " balloon": 5503,
      " eating": 5504,
      " watches": 5505,
      " computers": 5506,
      " dot((": 5507,
      " normally": 5508,
      " ABC$": 5509,
      "C$\",C,": 5510,
      " intervals": 5511,
      " encl": 5512,
      " laundry": 5513,
      " tournament": 5514,
      "b+": 5515,
      "gie": 5516,
      "ius": 5517,
      "n$": 5518,
      "rm": 5519,
      " poured": 5520,
      " $i": 5521,
      " nails": 5522,
      " roo": 5523,
      "}{X": 5524,
      "\nThey": 5525,
      " chose": 5526,
      "phone": 5527,
      " pages,": 5528,
      " blueberries": 5529,
      " circle,": 5530,
      " stores": 5531,
      " adop": 5532,
      " denote": 5533,
      " gained": 5534,
      ".\n\n[asy]\n": 5535,
      " depth": 5536,
      " beds": 5537,
      " determined": 5538,
      " practice": 5539,
      " ≤": 5540,
      "P$\",": 5541,
      "e.": 5542,
      "z|": 5543,
      " theater": 5544,
      " coup": 5545,
      " pets": 5546,
      " mg": 5547,
      " mail": 5548,
      " x.\nThe": 5549,
      "arrows": 5550,
      " lift": 5551,
      "ecess": 5552,
      " shar": 5553,
      " quick": 5554,
      " setting": 5555,
      " Ell": 5556,
      " Ange": 5557,
      " cards,": 5558,
      " words,": 5559,
      ")--cycle);\ndraw((": 5560,
      " $ABCD": 5561,
      " manager": 5562,
      " separated": 5563,
      " Jimmy": 5564,
      " dresses": 5565,
      " general": 5566,
      "\nEach": 5567,
      " domain": 5568,
      " asympt": 5569,
      "B$": 5570,
      "inary": 5571,
      " sou": 5572,
      " wed": 5573,
      " fine": 5574,
      " hus": 5575,
      "ums": 5576,
      " gm": 5577,
      " report": 5578,
      " kind": 5579,
      " Setting": 5580,
      " Har": 5581,
      " Hannah": 5582,
      " $x-": 5583,
      " kms": 5584,
      "actoring": 5585,
      " seconds,": 5586,
      "{a}$": 5587,
      " register": 5588,
      "\nAdding": 5589,
      " $(x-": 5590,
      " dot(": 5591,
      " goldfish": 5592,
      "ancy": 5593,
      " piggy": 5594,
      " cyclist": 5595,
      " peppers": 5596,
      " forest": 5597,
      "$\nTo": 5598,
      ")}.$": 5599,
      "\\st": 5600,
      "\\implies": 5601,
      "c^": 5602,
      "ern": 5603,
      " cd": 5604,
      " pots": 5605,
      " cool": 5606,
      " alb": 5607,
      " That": 5608,
      " De": 5609,
      ".\\]This": 5610,
      " Randy": 5611,
      " partners": 5612,
      " transport": 5613,
      "}{r}{": 5614,
      " successive": 5615,
      " Greg": 5616,
      " honey": 5617,
      ")\",": 5618,
      "E--": 5619,
      "\\ph": 5620,
      "rees,": 5621,
      "aters": 5622,
      " peter": 5623,
      " kittens": 5624,
      "elta": 5625,
      " sheet": 5626,
      " remained": 5627,
      " peb": 5628,
      " people.": 5629,
      "}.\\]Then": 5630,
      "\\dotsm": 5631,
      ")(x-": 5632,
      "(n-": 5633,
      " drain": 5634,
      "-fourth": 5635,
      "Enter": 5636,
      "''": 5637,
      " necess": 5638,
      " ring": 5639,
      " beats": 5640,
      " \"i": 5641,
      " Add": 5642,
      " find:\n": 5643,
      " water,": 5644,
      "{a}{": 5645,
      "rodu": 5646,
      " morning,": 5647,
      " Kevin": 5648,
      "rot": 5649,
      " ome": 5650,
      "rey": 5651,
      " mp": 5652,
      "\\bold": 5653,
      " resp": 5654,
      " cm.": 5655,
      " \"since": 5656,
      " store.": 5657,
      " police": 5658,
      " includes": 5659,
      " guess": 5660,
      " pictures": 5661,
      "A--B--C--cycle": 5662,
      "\nJ": 5663,
      "Finally,": 5664,
      "length": 5665,
      " boot": 5666,
      "ashed": 5667,
      "ullet": 5668,
      " \"e": 5669,
      "\\bullet": 5670,
      " AD": 5671,
      " Ab": 5672,
      " Sim": 5673,
      "\nTime": 5674,
      " doesn't": 5675,
      " box.": 5676,
      " sold:": 5677,
      " digit,": 5678,
      "ccording": 5679,
      " receiving": 5680,
      " house.": 5681,
      ")+(": 5682,
      "\nPrice": 5683,
      "&&&&&&&&": 5684,
      "medi": 5685,
      " observ": 5686,
      " ++i)": 5687,
      "\nB": 5688,
      "hakes": 5689,
      "s^": 5690,
      "x}": 5691,
      "{\n": 5692,
      " (y": 5693,
      " label": 5694,
      " \"requ": 5695,
      "urrent": 5696,
      " unc": 5697,
      " Beth": 5698,
      "andra": 5699,
      "{pmatrix},$": 5700,
      " Lu": 5701,
      " breaks": 5702,
      " (x-": 5703,
      " discount,": 5704,
      " don't": 5705,
      "month": 5706,
      " window": 5707,
      "approx": 5708,
      " retailer": 5709,
      " ingred": 5710,
      " \"required": 5711,
      "co": 5712,
      "ila": 5713,
      " rational": 5714,
      " rele": 5715,
      "econd": 5716,
      " coat": 5717,
      " \"rel": 5718,
      " Similarly,": 5719,
      " age,": 5720,
      " downlo": 5721,
      " Rick": 5722,
      " marbles.": 5723,
      " Ali": 5724,
      " notebook": 5725,
      " simplest": 5726,
      " storage": 5727,
      " \"relative": 5728,
      "QR": 5729,
      "false": 5730,
      "rick": 5731,
      " times.": 5732,
      " $y$,": 5733,
      " commod": 5734,
      " follows:\nCost": 5735,
      " \"sum": 5736,
      " degrees,": 5737,
      " billion": 5738,
      "inomial": 5739,
      " $x=-": 5740,
      " washing": 5741,
      " sibling": 5742,
      " broken": 5743,
      " tunnel": 5744,
      " committee": 5745,
      " aquari": 5746,
      " tan": 5747,
      " hill": 5748,
      "olume": 5749,
      "abular": 5750,
      "anges,": 5751,
      " exist": 5752,
      " June": 5753,
      " sche": 5754,
      " hens": 5755,
      " matter": 5756,
      " dogs,": 5757,
      " party.": 5758,
      "}{b}": 5759,
      " shipping": 5760,
      " applic": 5761,
      " pebbles": 5762,
      "ias": 5763,
      "mm": 5764,
      "o's": 5765,
      "z)": 5766,
      "}_{": 5767,
      " body": 5768,
      ".\nIt": 5769,
      " lions": 5770,
      "amma": 5771,
      " lead": 5772,
      " paise": 5773,
      " Poin": 5774,
      " wrote": 5775,
      "itional": 5776,
      " cheaper": 5777,
      " winner": 5778,
      " garage": 5779,
      "{tabular": 5780,
      " neighborhood": 5781,
      "draw": 5782,
      "{y^": 5783,
      " (the": 5784,
      " sodas": 5785,
      " has,": 5786,
      " spor": 5787,
      " projection": 5788,
      " excess": 5789,
      " notation": 5790,
      " week:": 5791,
      " march": 5792,
      " Park": 5793,
      " term,": 5794,
      "{b}$": 5795,
      " polit": 5796,
      " picking": 5797,
      " watching": 5798,
      "shift((": 5799,
      " offered": 5800,
      "triple": 5801,
      " £": 5802,
      " ‘": 5803,
      " trac": 5804,
      " size(": 5805,
      " ${": 5806,
      "ense": 5807,
      " (i": 5808,
      " heav": 5809,
      " solid": 5810,
      " $x)": 5811,
      "ermark": 5812,
      " iP": 5813,
      " earl": 5814,
      " resid": 5815,
      " gradu": 5816,
      "perb": 5817,
      " \"time": 5818,
      "ugust": 5819,
      " supermark": 5820,
      " snakes": 5821,
      " Jenna": 5822,
      " allowed": 5823,
      " sleeps": 5824,
      " major": 5825,
      " Brian": 5826,
      " hairc": 5827,
      " Henry": 5828,
      " yesterday": 5829,
      "(p": 5830,
      "))*": 5831,
      "of": 5832,
      " tract": 5833,
      " a,": 5834,
      " ahead": 5835,
      " oct": 5836,
      " brad": 5837,
      " eld": 5838,
      " (m": 5839,
      ".\nK": 5840,
      " spot": 5841,
      " SE);\nlabel(\"$": 5842,
      " Tw": 5843,
      " Miss": 5844,
      " seventh": 5845,
      "elling": 5846,
      " money.": 5847,
      " colored": 5848,
      " thrown": 5849,
      " Annie": 5850,
      " banana": 5851,
      " arrangement": 5852,
      " closed": 5853,
      "indrical": 5854,
      "rid": 5855,
      " ach": 5856,
      " sqrt(": 5857,
      " based": 5858,
      " [/asy]": 5859,
      " r_": 5860,
      " stere": 5861,
      " Jon": 5862,
      "sequ": 5863,
      " grows": 5864,
      " crate": 5865,
      " classroom": 5866,
      " together?": 5867,
      "fficient": 5868,
      " sitting": 5869,
      " apartments": 5870,
      " cylindrical": 5871,
      " joins": 5872,
      " sections": 5873,
      " shelf": 5874,
      " peanuts": 5875,
      "(theta": 5876,
      " George": 5877,
      "]--": 5878,
      " fontsize(": 5879,
      "otes": 5880,
      ");\n}\n\n": 5881,
      "indy": 5882,
      " Marg": 5883,
      " F,": 5884,
      " feet.\nThe": 5885,
      " zoo": 5886,
      " suit": 5887,
      " $n+": 5888,
      " information,": 5889,
      " given:\nAmount": 5890,
      " focus": 5891,
      "&M": 5892,
      "AD": 5893,
      "\\n": 5894,
      "\\approx": 5895,
      "ring": 5896,
      "inated": 5897,
      " coun": 5898,
      " x}{": 5899,
      "action": 5900,
      " shots": 5901,
      "istant": 5902,
      " plann": 5903,
      " Consider": 5904,
      " wanted": 5905,
      " row,": 5906,
      " dollars.": 5907,
      " $g(x)$": 5908,
      " baking": 5909,
      " picture": 5910,
      " exceeds": 5911,
      " television": 5912,
      "c|c|": 5913,
      " linear": 5914,
      " history": 5915,
      " semicircle": 5916,
      "'ll": 5917,
      "O,": 5918,
      " pine": 5919,
      " happ": 5920,
      "ate(": 5921,
      " cost,": 5922,
      " shoe": 5923,
      " M&M": 5924,
      " Bar": 5925,
      "phan": 5926,
      " cla": 5927,
      "ograph": 5928,
      " water.": 5929,
      " brings": 5930,
      " triangle.": 5931,
      " Ken": 5932,
      " expression,": 5933,
      " taller": 5934,
      " maintain": 5935,
      "{cis}": 5936,
      " february": 5937,
      " merchant": 5938,
      " commodity": 5939,
      "=y": 5940,
      "Circle(": 5941,
      "fall": 5942,
      "m.": 5943,
      "roll": 5944,
      "{O": 5945,
      " tur": 5946,
      " bol": 5947,
      " mps": 5948,
      " fart": 5949,
      " rah": 5950,
      "omple": 5951,
      " perm": 5952,
      "ula": 5953,
      " \"th": 5954,
      " With": 5955,
      " oranges,": 5956,
      " unif": 5957,
      "ants,": 5958,
      ".\nHowever,": 5959,
      "$\nGiven": 5960,
      " quantities": 5961,
      " toward": 5962,
      "-coordinates": 5963,
      " necklace": 5964,
      "'$": 5965,
      "[]": 5966,
      "}(x)": 5967,
      " cuc": 5968,
      " $e": 5969,
      " furn": 5970,
      " held": 5971,
      "\\cline": 5972,
      " Therefore": 5973,
      " Sol": 5974,
      " Ed": 5975,
      " Eric": 5976,
      " NE);\nlabel(\"$": 5977,
      " $y^": 5978,
      "$.\nA": 5979,
      " appe": 5980,
      " respectively,": 5981,
      ".\nAt": 5982,
      " $B$,": 5983,
      " $P_": 5984,
      ".\n\n[asy]\nunitsize(": 5985,
      " visits": 5986,
      " layer": 5987,
      " crackers": 5988,
      " something": 5989,
      "-minute": 5990,
      "count": 5991,
      "oes,": 5992,
      " tap": 5993,
      " sure": 5994,
      " p=": 5995,
      " $E$": 5996,
      "orig": 5997,
      "style": 5998,
      " Multiplying": 5999,
      " washed": 6000,
      " subs": 6001,
      ".\nTogether,": 6002,
      " books.": 6003,
      " rental": 6004,
      " bowling": 6005,
      "-ups": 6006,
      " groceries": 6007,
      "\n\nTo": 6008,
      " ·": 6009,
      "y.": 6010,
      " fle": 6011,
      " ...": 6012,
      " stamp": 6013,
      " staff": 6014,
      " SE": 6015,
      " orch": 6016,
      " june": 6017,
      " E);\nlabel(\"$": 6018,
      " others": 6019,
      "overed": 6020,
      " apples.": 6021,
      " fries": 6022,
      " films": 6023,
      " loaves": 6024,
      "=true,": 6025,
      " Daniel": 6026,
      " couples": 6027,
      " stuffed": 6028,
      " pancakes": 6029,
      "%.": 6030,
      "ued": 6031,
      " ful": 6032,
      "ana": 6033,
      " hem": 6034,
      " Triangle": 6035,
      "ector": 6036,
      " four-digit": 6037,
      " deer": 6038,
      " himself": 6039,
      " packet": 6040,
      " voters": 6041,
      "f(f(": 6042,
      " negative,": 6043,
      " copy": 6044,
      " bigger": 6045,
      " sodium": 6046,
      " appeared": 6047,
      " ie": 6048,
      "$.\nSo,": 6049,
      "/minute": 6050,
      "b_": 6051,
      "i's": 6052,
      "pts": 6053,
      "t,": 6054,
      "wards": 6055,
      "x^{": 6056,
      " sail": 6057,
      " crew": 6058,
      " b_": 6059,
      "itch": 6060,
      " (B": 6061,
      " webs": 6062,
      " jill": 6063,
      " &&": 6064,
      " first,": 6065,
      " Eval": 6066,
      "ually": 6067,
      " endpoints": 6068,
      " counting": 6069,
      "{v}$": 6070,
      " contest": 6071,
      " turns": 6072,
      " tablesp": 6073,
      "}{a}": 6074,
      " climbed": 6075,
      " deposited": 6076,
      " iron": 6077,
      " bonus": 6078,
      " planned": 6079,
      " cucumber": 6080,
      "/month": 6081,
      "lap": 6082,
      "pic": 6083,
      " overs": 6084,
      "inite": 6085,
      "redd": 6086,
      " west": 6087,
      " mr": 6088,
      "ette": 6089,
      " average,": 6090,
      " i<": 6091,
      " formulas,": 6092,
      " phones": 6093,
      " $CD": 6094,
      " games,": 6095,
      " ™": 6096,
      "awn": 6097,
      "g(x)": 6098,
      "uish": 6099,
      "})(": 6100,
      " till": 6101,
      " si": 6102,
      " cred": 6103,
      " ber": 6104,
      " dais": 6105,
      "ita": 6106,
      "igs": 6107,
      " yarn": 6108,
      "ries,": 6109,
      " High": 6110,
      " expl": 6111,
      "(x_": 6112,
      "draw((-": 6113,
      " subsc": 6114,
      " diff": 6115,
      "\n\nWe": 6116,
      " now,": 6117,
      " decide": 6118,
      " slices,": 6119,
      " eleph": 6120,
      " nights": 6121,
      " rainfall": 6122,
      " hyperb": 6123,
      " created": 6124,
      "D$\",D,": 6125,
      " definition": 6126,
      " sports": 6127,
      ",sqrt(": 6128,
      "F$\",": 6129,
      "\\arc": 6130,
      "iple": 6131,
      "rish": 6132,
      " tiss": 6133,
      " ches": 6134,
      " ((": 6135,
      "ument": 6136,
      "inguish": 6137,
      " live": 6138,
      "olds": 6139,
      " mini": 6140,
      " cones": 6141,
      ")--(x": 6142,
      " arrive": 6143,
      " goat": 6144,
      ")*\"": 6145,
      ");\n\n[/asy]": 6146,
      " arrived": 6147,
      " examination": 6148,
      " immedi": 6149,
      " sauce": 6150,
      " Eng": 6151,
      " Enter": 6152,
      " scoops": 6153,
      " debt": 6154,
      " newspap": 6155,
      " estim": 6156,
      " aquarium": 6157,
      "\\arcsin": 6158,
      "mons": 6159,
      " action": 6160,
      " $H": 6161,
      " lbs": 6162,
      " pris": 6163,
      " X$,": 6164,
      " David": 6165,
      " Pri": 6166,
      " teeth": 6167,
      " Nathan": 6168,
      " slips": 6169,
      " friends,": 6170,
      " surv": 6171,
      " served": 6172,
      " tickets,": 6173,
      " swims": 6174,
      "{aligned}": 6175,
      "{u}": 6176,
      " supermarket": 6177,
      "sequent": 6178,
      "inguishable": 6179,
      "F_": 6180,
      "\\L": 6181,
      "bon": 6182,
      "bottom": 6183,
      "ca": 6184,
      " hired": 6185,
      "ete": 6186,
      " reached": 6187,
      "}{k": 6188,
      ")(b": 6189,
      " follows:\nTotal": 6190,
      "$.\nC": 6191,
      " appear": 6192,
      " mixing": 6193,
      " maxwell": 6194,
      ".\nFrom": 6195,
      " events": 6196,
      " july": 6197,
      " centered": 6198,
      " transaction": 6199,
      " vacu": 6200,
      " burger": 6201,
      " $O$": 6202,
      " earlier": 6203,
      " uniform": 6204,
      " ´": 6205,
      "$\nSimplifying,": 6206,
      ",linewidth(": 6207,
      "tt": 6208,
      " bases": 6209,
      " rearr": 6210,
      "}{z": 6211,
      " conf": 6212,
      "ubs": 6213,
      "),gray(": 6214,
      " price,": 6215,
      " apr": 6216,
      " students.": 6217,
      " Equ": 6218,
      "{pmatrix}\\]": 6219,
      " bought:": 6220,
      "airs": 6221,
      " laid": 6222,
      " Qu": 6223,
      " deviation": 6224,
      " Phil": 6225,
      "/c": 6226,
      "/p": 6227,
      "/sqrt(": 6228,
      "C)": 6229,
      "F--": 6230,
      "\\}$": 6231,
      "b$": 6232,
      "ded": 6233,
      "rd": 6234,
      " [asy]": 6235,
      " pul": 6236,
      " eff": 6237,
      "ify": 6238,
      "than": 6239,
      " has.": 6240,
      " lemons": 6241,
      " work,": 6242,
      " Bl": 6243,
      " length,": 6244,
      "izer": 6245,
      " NW": 6246,
      " filling": 6247,
      "\nAfter": 6248,
      " revenues": 6249,
      " repeats": 6250,
      " repeating": 6251,
      "-multiply": 6252,
      " deposit": 6253,
      " chess": 6254,
      "$)": 6255,
      "lt": 6256,
      "}.": 6257,
      "}\\,": 6258,
      " syr": 6259,
      " dan": 6260,
      " drew": 6261,
      ".\n\nWe": 6262,
      " rock": 6263,
      "ention": 6264,
      "cember": 6265,
      "if(": 6266,
      " value,": 6267,
      " Amy": 6268,
      " >=": 6269,
      " cars,": 6270,
      ".\\]Since": 6271,
      " followed": 6272,
      " probabilities": 6273,
      " rectangles": 6274,
      " $b^": 6275,
      "\nCombining": 6276,
      " pound,": 6277,
      " transfer": 6278,
      "hells": 6279,
      "visions": 6280,
      " wooden": 6281,
      "retch": 6282,
      " contribution": 6283,
      " contributed": 6284,
      " rabbit": 6285,
      "iversity": 6286,
      " seashells": 6287,
      " macar": 6288,
      " wholesale": 6289,
      " syrup": 6290,
      "\nX": 6291,
      "(B,": 6292,
      "B$\",(": 6293,
      " b$": 6294,
      " pent": 6295,
      " mL": 6296,
      " twenty": 6297,
      " Ted": 6298,
      " year?": 6299,
      " buff": 6300,
      " zinc": 6301,
      " $A$,": 6302,
      " $n$.": 6303,
      "-pound": 6304,
      " construction": 6305,
      " furniture": 6306,
      " immediately": 6307,
      " ∏": 6308,
      "/g": 6309,
      "B)": 6310,
      " port": 6311,
      " mike": 6312,
      "an's": 6313,
      "ilit": 6314,
      " kinds": 6315,
      " \"for": 6316,
      "ithm": 6317,
      " Sal": 6318,
      " School": 6319,
      "dot(": 6320,
      "irst,": 6321,
      " make?": 6322,
      " dem": 6323,
      " wallet": 6324,
      " radical": 6325,
      "ported": 6326,
      " cards.": 6327,
      " Charl": 6328,
      " night,": 6329,
      " rained": 6330,
      " get:\n$X": 6331,
      " delivered": 6332,
      " bisc": 6333,
      " replacement": 6334,
      " couple": 6335,
      "@{}c@{}c": 6336,
      " puppy": 6337,
      " Evaluate": 6338,
      "\\Long": 6339,
      " ign": 6340,
      "fit": 6341,
      "mit": 6342,
      "mine": 6343,
      "isplay": 6344,
      " bond": 6345,
      " (t": 6346,
      "asmine": 6347,
      " as\n\\[": 6348,
      "usion": 6349,
      " cost?": 6350,
      " Jam": 6351,
      " Col": 6352,
      " Dar": 6353,
      "\\display": 6354,
      " pencils,": 6355,
      " taxi": 6356,
      " $\\|": 6357,
      " York": 6358,
      ");\ndot(": 6359,
      " manufacturing": 6360,
      " hamburgers": 6361,
      " ingredients": 6362,
      "\\displaystyle": 6363,
      "\\)\",": 6364,
      "br": 6365,
      " binomial": 6366,
      " mass": 6367,
      " to\n\\[": 6368,
      " tooth": 6369,
      ".\n\nTherefore,": 6370,
      " guppies": 6371,
      "omas": 6372,
      "ential": 6373,
      " bead": 6374,
      " equation:": 6375,
      "earr": 6376,
      " Jordan": 6377,
      " Lily": 6378,
      " Nor": 6379,
      " write:\n": 6380,
      "ika": 6381,
      " pages.": 6382,
      " \"say": 6383,
      " crossing": 6384,
      " bill,": 6385,
      " files": 6386,
      " Expand": 6387,
      " \"average": 6388,
      " bakery": 6389,
      "-sided": 6390,
      " hundre": 6391,
      "Equality": 6392,
      " farther": 6393,
      "\nW": 6394,
      "-day": 6395,
      "=false": 6396,
      "ABC": 6397,
      "\\D": 6398,
      "ci": 6399,
      "cing": 6400,
      " cater": 6401,
      " pan": 6402,
      " mic": 6403,
      ".\nUsing": 6404,
      "icing": 6405,
      " yz": 6406,
      " heal": 6407,
      " stones": 6408,
      " spoons": 6409,
      " Ass": 6410,
      " sea": 6411,
      " roads": 6412,
      " Rem": 6413,
      " Lou": 6414,
      " inches.\nThe": 6415,
      "}}.\n": 6416,
      " Krist": 6417,
      " calculation": 6418,
      " recomm": 6419,
      ";\ndraw(": 6420,
      "),NE": 6421,
      " Tommy": 6422,
      " transl": 6423,
      " shortest": 6424,
      " separately": 6425,
      " $F$": 6426,
      " preferred": 6427,
      " harvested": 6428,
      " coconut": 6429,
      " English": 6430,
      " hundreds": 6431,
      " „": 6432,
      "A)": 6433,
      "a-": 6434,
      "k$": 6435,
      "pay": 6436,
      "wood": 6437,
      "|=": 6438,
      " tul": 6439,
      " Mat": 6440,
      " Brad": 6441,
      "\",(-": 6442,
      "{p}": 6443,
      " clou": 6444,
      " square.": 6445,
      " knows": 6446,
      " litter": 6447,
      " graders": 6448,
      " dishes": 6449,
      "ia's": 6450,
      " house,": 6451,
      " Char": 6452,
      " March": 6453,
      " returns": 6454,
      " numer": 6455,
      "_{n-": 6456,
      " charity": 6457,
      " clearly": 6458,
      " progress": 6459,
      " bicycles": 6460,
      " pepper": 6461,
      " coupon": 6462,
      "\\phi": 6463,
      " elder": 6464,
      "F,": 6465,
      "\\g": 6466,
      "xen": 6467,
      "x$,": 6468,
      " oxen": 6469,
      " fox": 6470,
      " x\nTo": 6471,
      " inline": 6472,
      " rol": 6473,
      "sters": 6474,
      "ified": 6475,
      "less": 6476,
      " X)": 6477,
      " triangular": 6478,
      "iece": 6479,
      "^{n": 6480,
      "tember": 6481,
      ".\nTaking": 6482,
      " Nancy": 6483,
      "arget": 6484,
      " overlap": 6485,
      " expans": 6486,
      " records": 6487,
      " weeks.": 6488,
      " batches": 6489,
      " contribute": 6490,
      "-inch": 6491,
      " bracelet": 6492,
      " doctor": 6493,
      " \"this": 6494,
      "\\gamma": 6495,
      "-w": 6496,
      "ya": 6497,
      "|$": 6498,
      " tech": 6499,
      " cos": 6500,
      "ago": 6501,
      " Dave": 6502,
      " respond": 6503,
      " smart": 6504,
      "\nSolving": 6505,
      " Nat": 6506,
      " school,": 6507,
      " school.": 6508,
      " cents,": 6509,
      " highlight": 6510,
      " strawberry": 6511,
      " properties": 6512,
      " registered": 6513,
      " omelet": 6514,
      " rahul": 6515,
      ")\nNumber": 6516,
      ",b": 6517,
      "a$": 6518,
      "iors": 6519,
      "x}{": 6520,
      "y$\",": 6521,
      "isp": 6522,
      "ides": 6523,
      "amb": 6524,
      " span": 6525,
      " Ap": 6526,
      " then\n\\[": 6527,
      "earch": 6528,
      " chop": 6529,
      " whether": 6530,
      " left.\n####": 6531,
      "opes": 6532,
      " grades": 6533,
      " circle.": 6534,
      ");\ndraw(B--": 6535,
      " accept": 6536,
      " accident": 6537,
      " $r_": 6538,
      " putting": 6539,
      " patients": 6540,
      " shirts,": 6541,
      "space": 6542,
      " geometry": 6543,
      " independently": 6544,
      " blankets": 6545,
      " Prize": 6546,
      "-g": 6547,
      " dark": 6548,
      " hap": 6549,
      " weig": 6550,
      "raction": 6551,
      "ores": 6552,
      "aby": 6553,
      "}$.\nSince": 6554,
      " orth": 6555,
      " chann": 6556,
      " chlor": 6557,
      " MP(\"": 6558,
      "ulty": 6559,
      " area,": 6560,
      "eremy": 6561,
      "));\n}\n\n": 6562,
      "));\nlabel(": 6563,
      " growing": 6564,
      " Law": 6565,
      "obile": 6566,
      " driven": 6567,
      " markers": 6568,
      " weeks?": 6569,
      " donut": 6570,
      " Chris": 6571,
      " brother,": 6572,
      " skir": 6573,
      " basil": 6574,
      " treat": 6575,
      " sample": 6576,
      "{AB}$": 6577,
      " $M$": 6578,
      " \"first": 6579,
      " evaporated": 6580,
      " mushrooms": 6581,
      " occupied": 6582,
      " hemisp": 6583,
      " happen": 6584,
      "ura": 6585,
      " c)": 6586,
      " ants": 6587,
      " mn": 6588,
      " is,": 6589,
      "acing": 6590,
      "step": 6591,
      " $x^{": 6592,
      "Initial": 6593,
      " Di": 6594,
      " Dor": 6595,
      " form.": 6596,
      " flies": 6597,
      " $y,$": 6598,
      " Kend": 6599,
      " overt": 6600,
      "aleb": 6601,
      " backp": 6602,
      ".\nFinally,": 6603,
      " friend,": 6604,
      "$\nNow,": 6605,
      " tall.": 6606,
      " planks": 6607,
      "(n+": 6608,
      " identity": 6609,
      " babysitting": 6610,
      " husb": 6611,
      " vacuum": 6612,
      " ‹": 6613,
      "{th": 6614,
      " aut": 6615,
      " sist": 6616,
      " x\nTotal": 6617,
      " recent": 6618,
      " beh": 6619,
      "}{-": 6620,
      " it,": 6621,
      " \\]": 6622,
      " \\{": 6623,
      " jim": 6624,
      " variables": 6625,
      " subject": 6626,
      " commas.": 6627,
      " pieces,": 6628,
      "equals": 6629,
      "ockets": 6630,
      " objects": 6631,
      " children,": 6632,
      " president": 6633,
      "{c})": 6634,
      " arrives": 6635,
      " $(x,y": 6636,
      " retire": 6637,
      " elev": 6638,
      "),N);\nlabel(\"": 6639,
      " desk": 6640,
      " shown.": 6641,
      " further,": 6642,
      " sweets": 6643,
      " sprockets": 6644,
      " Marcus": 6645,
      "etype": 6646,
      " admission": 6647,
      " symmetry": 6648,
      " prism": 6649,
      " expansion": 6650,
      "\nL": 6651,
      " ›": 6652,
      "*X": 6653,
      "-k": 6654,
      "kin": 6655,
      " sour": 6656,
      " says": 6657,
      " (c": 6658,
      "ives,": 6659,
      " online": 6660,
      " changes": 6661,
      "iped": 6662,
      "ancel": 6663,
      "ocr": 6664,
      " screen": 6665,
      " halfway": 6666,
      " boxes,": 6667,
      " Last": 6668,
      " parameter": 6669,
      " appet": 6670,
      " radio": 6671,
      "{(E": 6672,
      " decreasing": 6673,
      " Carol": 6674,
      "[asy]\nsize(": 6675,
      " pigs": 6676,
      "f(x))": 6677,
      " waiting": 6678,
      " carrying": 6679,
      " concert": 6680,
      " credit": 6681,
      " pentagon": 6682,
      "/b": 6683,
      "a.": 6684,
      "bc": 6685,
      "{S": 6686,
      " tires": 6687,
      "ised": 6688,
      " lasts": 6689,
      "olf": 6690,
      "urer": 6691,
      " comic": 6692,
      " university": 6693,
      " Jean": 6694,
      "sem": 6695,
      " X$\n$": 6696,
      " sever": 6697,
      " clients": 6698,
      " Pete": 6699,
      " rob": 6700,
      " buy?": 6701,
      " Rose": 6702,
      " No": 6703,
      "$.\nIf": 6704,
      " appears": 6705,
      " paints": 6706,
      "{(D": 6707,
      "-fifth": 6708,
      " operations": 6709,
      " delivery": 6710,
      "\\hspace": 6711,
      " dimes,": 6712,
      " CDs": 6713,
      " novels": 6714,
      " experience": 6715,
      " flags": 6716,
      " averages": 6717,
      " claim": 6718,
      "\\Longrightarrow": 6719,
      " rolled": 6720,
      "oom": 6721,
      "oiss": 6722,
      "pro": 6723,
      "ses": 6724,
      " cas": 6725,
      " homes": 6726,
      " toll": 6727,
      " -x": 6728,
      " thir": 6729,
      ".\n\nLet's": 6730,
      " roy": 6731,
      "omparing": 6732,
      " sock": 6733,
      "eline": 6734,
      " spin": 6735,
      "\\cancel": 6736,
      " have:\n\\[": 6737,
      " monday": 6738,
      " joe": 6739,
      " Ms.": 6740,
      " Cars": 6741,
      "ension": 6742,
      " croiss": 6743,
      " emails": 6744,
      " blue,": 6745,
      " Ann": 6746,
      " Val": 6747,
      " $(x_": 6748,
      " paperback": 6749,
      " loads": 6750,
      " skip": 6751,
      " quarters,": 6752,
      " refrig": 6753,
      " Arrows(": 6754,
      " $h$": 6755,
      "xpanding,": 6756,
      "\\mathcal": 6757,
      " teaspoons": 6758,
      " tracks": 6759,
      " Solve": 6760,
      " weighed": 6761,
      " husband": 6762,
      "etype(\"": 6763,
      " ": 6764,
      "+(-": 6765,
      "B\",": 6766,
      "size=": 6767,
      "{CD": 6768,
      " ware": 6769,
      " wick": 6770,
      " pint": 6771,
      " mx": 6772,
      " fail": 6773,
      " hal": 6774,
      " hik": 6775,
      " carn": 6776,
      "izing": 6777,
      " salaries": 6778,
      "\n\nS": 6779,
      " called": 6780,
      " payments": 6781,
      " chooses": 6782,
      " typing": 6783,
      " sunfl": 6784,
      " separate": 6785,
      " bacon": 6786,
      "),red);\ndraw(": 6787,
      " scoop": 6788,
      " lady": 6789,
      "+i": 6790,
      "A$\",(": 6791,
      "E=": 6792,
      "yard": 6793,
      "{s": 6794,
      " a_n": 6795,
      " =<<": 6796,
      " bh": 6797,
      " bind": 6798,
      " b)^": 6799,
      " bool": 6800,
      " dam": 6801,
      " xx": 6802,
      " thous": 6803,
      " g(": 6804,
      " lts": 6805,
      " bear": 6806,
      " \"y": 6807,
      " \"ass": 6808,
      " Sp": 6809,
      " ratios": 6810,
      " left:": 6811,
      " grew": 6812,
      " NW);\nlabel(\"$": 6813,
      " object": 6814,
      " $BD": 6815,
      " super": 6816,
      " \"cost": 6817,
      " sunday": 6818,
      " cheesec": 6819,
      " shelter": 6820,
      " picnic": 6821,
      " telegraph": 6822,
      "A--B--C--D--": 6823,
      " AM-": 6824,
      " essay": 6825,
      " iPh": 6826,
      " hyperbola": 6827,
      "Expanding": 6828,
      "Time": 6829,
      "sel": 6830,
      " tire": 6831,
      " cab": 6832,
      " bikes": 6833,
      " $ax^": 6834,
      " fet": 6835,
      " harry": 6836,
      " (w": 6837,
      " liked": 6838,
      " vend": 6839,
      " Their": 6840,
      " jose": 6841,
      " Caleb": 6842,
      " pops": 6843,
      " close": 6844,
      " second,": 6845,
      " positions": 6846,
      " arun": 6847,
      " Ger": 6848,
      " point,": 6849,
      " invited": 6850,
      ".\nHence,": 6851,
      " buses": 6852,
      " trip.": 6853,
      "icks(\"": 6854,
      " vote": 6855,
      " You": 6856,
      " checked": 6857,
      "white": 6858,
      " keeps": 6859,
      "{B}": 6860,
      "\\mathrm": 6861,
      " infinite": 6862,
      " frame": 6863,
      " tablespoons": 6864,
      "Al": 6865,
      "P(": 6866,
      "\\(": 6867,
      " host": 6868,
      "ets,": 6869,
      "enter": 6870,
      " vin": 6871,
      " vamp": 6872,
      " bell": 6873,
      "iff": 6874,
      " kill": 6875,
      "ades": 6876,
      " changed": 6877,
      "under": 6878,
      " summer": 6879,
      " papers": 6880,
      " earth": 6881,
      " longest": 6882,
      " LCM": 6883,
      " corner": 6884,
      " O,": 6885,
      "iley": 6886,
      ")(c": 6887,
      "hedron": 6888,
      " novel": 6889,
      " Now,": 6890,
      " Oliver": 6891,
      " While": 6892,
      " magnitude": 6893,
      " tanks": 6894,
      " berries": 6895,
      " š": 6896,
      "$-": 6897,
      ")\\\\\n&=": 6898,
      "Tick": 6899,
      "r,": 6900,
      " tons": 6901,
      "ises": 6902,
      " pup": 6903,
      " pears": 6904,
      " $u": 6905,
      " thing": 6906,
      " rise": 6907,
      " forward": 6908,
      "abella": 6909,
      " learn": 6910,
      "mates": 6911,
      " shoot": 6912,
      " incur": 6913,
      " quiz": 6914,
      " left-hand": 6915,
      " acid": 6916,
      " Carrie": 6917,
      " patch": 6918,
      " snake": 6919,
      " bulb": 6920,
      " plugging": 6921,
      " junior": 6922,
      "{gcd}\\,": 6923,
      " exercise": 6924,
      " biscuits": 6925,
      "\n-x": 6926,
      " ï": 6927,
      "+y^": 6928,
      "/(": 6929,
      " war": 6930,
      "inger": 6931,
      " rav": 6932,
      "}{x-": 6933,
      " Wend": 6934,
      " Tina": 6935,
      " get\n": 6936,
      " shot": 6937,
      " papay": 6938,
      " prime,": 6939,
      "oves": 6940,
      " A,B,C,": 6941,
      " electron": 6942,
      "radius": 6943,
      " iii": 6944,
      " Christm": 6945,
      " eyes": 6946,
      "rightanglemark(": 6947,
      " heavy": 6948,
      " ⋅": 6949,
      "$.\nSolving": 6950,
      "A$": 6951,
      "oad": 6952,
      "rings": 6953,
      " target": 6954,
      " fif": 6955,
      " hare": 6956,
      "iders": 6957,
      " there?": 6958,
      "ague": 6959,
      "),W);\nlabel(\"": 6960,
      " trail": 6961,
      "irect": 6962,
      " Er": 6963,
      "oger": 6964,
      " month?": 6965,
      " subsequent": 6966,
      " compos": 6967,
      " resolution": 6968,
      " now.": 6969,
      " Lake": 6970,
      " Ne": 6971,
      ")(a": 6972,
      " Gab": 6973,
      " Kyl": 6974,
      " covering": 6975,
      " prime.": 6976,
      ");\ndraw(C--": 6977,
      " radii": 6978,
      "anya": 6979,
      " backyard": 6980,
      " donates": 6981,
      " snack": 6982,
      " inequality,": 6983,
      "urthermore": 6984,
      " signs": 6985,
      " lights": 6986,
      " eras": 6987,
      " principle": 6988,
      " competitor": 6989,
      " applied": 6990,
      " installment": 6991,
      " squirrel": 6992,
      " scarves": 6993,
      " attempt": 6994,
      " counter": 6995,
      " several": 6996,
      "(k": 6997,
      "-x^": 6998,
      "D(": 6999,
      "c$": 7000,
      "ha": 7001,
      "water": 7002,
      " ton": 7003,
      " cous": 7004,
      " bit": 7005,
      " pile": 7006,
      " dess": 7007,
      " hang": 7008,
      " (not": 7009,
      " reun": 7010,
      " ver": 7011,
      " number?": 7012,
      "igible": 7013,
      "ichard": 7014,
      "unt": 7015,
      " Mic": 7016,
      " allig": 7017,
      " Percentage": 7018,
      ".\\]The": 7019,
      ",-.": 7020,
      " satur": 7021,
      "));dot((": 7022,
      " ago,": 7023,
      " legos": 7024,
      ",\\,\\": 7025,
      " Amanda": 7026,
      " Stephan": 7027,
      "defaultpen(linewidth(": 7028,
      " yogurt": 7029,
      " south": 7030,
      " applicants": 7031,
      "ces,": 7032,
      "rime": 7033,
      "t+": 7034,
      "{if": 7035,
      " a_{": 7036,
      " ps": 7037,
      " ange": 7038,
      " fed": 7039,
      " infl": 7040,
      " likes": 7041,
      " y)^": 7042,
      " seated": 7043,
      " tried": 7044,
      " never": 7045,
      " intercept": 7046,
      " {y": 7047,
      " (x+": 7048,
      " diam": 7049,
      " pret": 7050,
      " donation": 7051,
      " moved": 7052,
      " indirect": 7053,
      "+b^": 7054,
      "}\n\\]": 7055,
      " millilit": 7056,
      " delux": 7057,
      " zero,": 7058,
      " underst": 7059,
      " airport": 7060,
      " steve": 7061,
      " practices": 7062,
      " easily": 7063,
      " applying": 7064,
      " Barb": 7065,
      " hemisphere": 7066,
      "$:\n$": 7067,
      "+D": 7068,
      ";\nA": 7069,
      "A\",": 7070,
      "Distance": 7071,
      "E);\n\nlabel(\"$": 7072,
      "lugging": 7073,
      "p^": 7074,
      "ino": 7075,
      " soup": 7076,
      ".\nG": 7077,
      " lif": 7078,
      " codes": 7079,
      "plom": 7080,
      " chain": 7081,
      " Feb": 7082,
      " training": 7083,
      " Notice": 7084,
      " trick": 7085,
      " diplom": 7086,
      " poles": 7087,
      "onda": 7088,
      "{AD": 7089,
      " home.": 7090,
      " brothers": 7091,
      " holding": 7092,
      " satisfying": 7093,
      " attendees": 7094,
      " January": 7095,
      " politics": 7096,
      " newspapers": 7097,
      " behind": 7098,
      " warehouse": 7099,
      "C$\",(": 7100,
      "GM": 7101,
      "bp": 7102,
      "cks": 7103,
      "p(": 7104,
      "z+": 7105,
      "{(x": 7106,
      " t-shirts": 7107,
      " pq": 7108,
      " pants,": 7109,
      "anes": 7110,
      " dashed": 7111,
      "en,": 7112,
      " things": 7113,
      " wearing": 7114,
      " ros": 7115,
      "stick": 7116,
      " total?\nIf": 7117,
      " equate": 7118,
      " spl": 7119,
      " Jeremy": 7120,
      " pock": 7121,
      " X.": 7122,
      "right,": 7123,
      " party,": 7124,
      " trays": 7125,
      " ready": 7126,
      " roots,": 7127,
      " ounces,": 7128,
      " food,": 7129,
      " far,": 7130,
      " donate": 7131,
      " $p(": 7132,
      "blue": 7133,
      " began": 7134,
      " attending": 7135,
      "\nFor": 7136,
      ".\nBy": 7137,
      "\\mod": 7138,
      " treas": 7139,
      " [asy]\nsize(": 7140,
      " engineer": 7141,
      " wrapping": 7142,
      " faculty": 7143,
      " concentration": 7144,
      " Robert": 7145,
      " reserv": 7146,
      " elephants": 7147,
      " Equation": 7148,
      " clouds": 7149,
      " February": 7150,
      "%\",": 7151,
      ")\n$": 7152,
      " ath": 7153,
      " cult": 7154,
      " boun": 7155,
      " $Y": 7156,
      " meg": 7157,
      " fav": 7158,
      " inlet": 7159,
      " e^{": 7160,
      " guit": 7161,
      " lip": 7162,
      " lock": 7163,
      " losing": 7164,
      "ecall": 7165,
      " known": 7166,
      " james": 7167,
      " &$": 7168,
      ".\nSimilarly,": 7169,
      " scal": 7170,
      "useum": 7171,
      " Kyle": 7172,
      " calculator": 7173,
      " ended": 7174,
      " markup": 7175,
      "othy": 7176,
      " Carly": 7177,
      " begins": 7178,
      " figures": 7179,
      " grandm": 7180,
      " benef": 7181,
      " William": 7182,
      " roof": 7183,
      "reddy": 7184,
      " Carson": 7185,
      "icks(\"%\",": 7186,
      " fifteen": 7187,
      "\n(x": 7188,
      "%)": 7189,
      "-gra": 7190,
      ".m.": 7191,
      "r+": 7192,
      "}\\\\\n": 7193,
      " tet": 7194,
      " ss": 7195,
      " sess": 7196,
      " c$": 7197,
      " cc": 7198,
      " d^": 7199,
      " near": 7200,
      "illed": 7201,
      " loc": 7202,
      " latt": 7203,
      "store": 7204,
      " force": 7205,
      " spir": 7206,
      " W);\nlabel(\"$": 7207,
      " SW": 7208,
      " Mad": 7209,
      "),\\]": 7210,
      " years?": 7211,
      "uesday": 7212,
      " followers": 7213,
      " Ray": 7214,
      " Or": 7215,
      "\nWeight": 7216,
      " together.": 7217,
      " bag.": 7218,
      "));\ndraw(Circle((": 7219,
      "\\det": 7220,
      " odd,": 7221,
      " home,": 7222,
      "iana": 7223,
      ".\nOne": 7224,
      " rolling": 7225,
      " else": 7226,
      " delivers": 7227,
      " distribution": 7228,
      "\nFrom": 7229,
      "-thirds": 7230,
      " Brand": 7231,
      "\\mbox": 7232,
      " sweaters": 7233,
      "graph(func": 7234,
      "left,": 7235,
      " cucumbers": 7236,
      " \"assume": 7237,
      " AM-GM": 7238,
      "urthermore,": 7239,
      ";}\n": 7240,
      "F$": 7241,
      "books": 7242,
      "isher": 7243,
      "aron": 7244,
      " nice": 7245,
      " lion": 7246,
      " stocks": 7247,
      "amed": 7248,
      "ainder": 7249,
      " sport": 7250,
      "chol": 7251,
      " coming": 7252,
      " jug": 7253,
      " trader": 7254,
      " What's": 7255,
      "axes": 7256,
      " i=": 7257,
      " earrings": 7258,
      "extend": 7259,
      " scouts": 7260,
      "okes": 7261,
      ":\n$X": 7262,
      " above=true,": 7263,
      "mentary": 7264,
      " $(a": 7265,
      "ize));\n\n": 7266,
      " even,": 7267,
      " ending": 7268,
      " househ": 7269,
      " defaultpen(linewidth(": 7270,
      " loaf": 7271,
      " tree,": 7272,
      ".$\n\nS": 7273,
      "axispen": 7274,
      "axisarrows": 7275,
      ",\\]which": 7276,
      " statement": 7277,
      " situation.\nThe": 7278,
      " inversely": 7279,
      "ommod": 7280,
      " manufacturer": 7281,
      "),End": 7282,
      " offering": 7283,
      " zeroes": 7284,
      "________________": 7285,
      " $a+b+c": 7286,
      " carpet": 7287,
      " $T$": 7288,
      " namely": 7289,
      "icksArr": 7290,
      "icksArry": 7291,
      "\\star": 7292,
      " album": 7293,
      " p=axispen": 7294,
      " health": 7295,
      " tulips": 7296,
      " Kendra": 7297,
      "equals(": 7298,
      " Arrows(size=": 7299,
      "Tick=": 7300,
      "axisarrowsize));\n\n": 7301,
      " p=axispen,": 7302,
      " Arrows(size=axisarrowsize));\n\n": 7303,
      "$\nSubtracting": 7304,
      "P$": 7305,
      "een": 7306,
      "hew": 7307,
      " a)": 7308,
      " oyst": 7309,
      " s^": 7310,
      " pull": 7311,
      " pies,": 7312,
      " xz": 7313,
      " (C": 7314,
      " yrs": 7315,
      "}$.\n\n": 7316,
      "herical": 7317,
      " Adding": 7318,
      "aria": 7319,
      " equal,": 7320,
      " colour": 7321,
      "{align*}Thus,": 7322,
      " $b_": 7323,
      " digits.": 7324,
      " given:\nTotal": 7325,
      " accommod": 7326,
      " sale.": 7327,
      " reduces": 7328,
      " $(x,": 7329,
      "}.\n\\]": 7330,
      " airplane": 7331,
      " moment": 7332,
      " Julie": 7333,
      "Note:": 7334,
      "add(": 7335,
      " construct": 7336,
      " decorations": 7337,
      " puzzle": 7338,
      " asymptote": 7339,
      " tissues": 7340,
      "ocrats": 7341,
      " vendor": 7342,
      ")?": 7343,
      ")}$.": 7344,
      "-(-": 7345,
      "a)": 7346,
      "e's": 7347,
      "ffor": 7348,
      "oving": 7349,
      "tick": 7350,
      " ax^": 7351,
      " mowing": 7352,
      ".\n\nIf": 7353,
      " rt": 7354,
      " bees": 7355,
      "uth": 7356,
      " coach": 7357,
      " Sep": 7358,
      "ief": 7359,
      "aped": 7360,
      " factorial": 7361,
      " flavor": 7362,
      "{align*}S": 7363,
      " book.": 7364,
      " $r^": 7365,
      " $c,$": 7366,
      " denotes": 7367,
      " loaded": 7368,
      "bling": 7369,
      " switches": 7370,
      " $y$-axis": 7371,
      ")+fontsize(": 7372,
      " butterfl": 7373,
      ",Size=": 7374,
      "ewel": 7375,
      " lollipop": 7376,
      " altogether?": 7377,
      " \"ratio": 7378,
      " associates": 7379,
      " chapters": 7380,
      " tractor": 7381,
      " fully": 7382,
      " transferred": 7383,
      "C\",": 7384,
      "X)": 7385,
      "hop": 7386,
      "i|": 7387,
      "iers": 7388,
      "jug": 7389,
      "ville": 7390,
      "y}": 7391,
      "|,": 7392,
      "heit": 7393,
      " $L": 7394,
      " x+": 7395,
      " y}": 7396,
      " totals": 7397,
      " stairs": 7398,
      " has.\nLet's": 7399,
      " leap": 7400,
      " it's": 7401,
      "ctan": 7402,
      " These": 7403,
      "ury": 7404,
      " cost:": 7405,
      " Hence": 7406,
      " worms": 7407,
      " conference": 7408,
      " conjug": 7409,
      " secs": 7410,
      " shad": 7411,
      "andel": 7412,
      "exts": 7413,
      "\nTaking": 7414,
      " i/": 7415,
      " commerc": 7416,
      " invol": 7417,
      " slip": 7418,
      " schools": 7419,
      "{a})": 7420,
      " finishes": 7421,
      " book,": 7422,
      "{b^": 7423,
      "ibble": 7424,
      " expressions": 7425,
      "{align*}\n&": 7426,
      " children.": 7427,
      " $PQ": 7428,
      "yler": 7429,
      " midpoints": 7430,
      " roller": 7431,
      " tall,": 7432,
      " courses": 7433,
      " specific": 7434,
      " Emma": 7435,
      " possibility": 7436,
      " successful": 7437,
      " trapezium": 7438,
      " $l$": 7439,
      " hundredth": 7440,
      "\\arctan": 7441,
      " Charles": 7442,
      " deluxe": 7443,
      " commercial": 7444,
      "=.": 7445,
      "b)": 7446,
      "iot": 7447,
      "nor": 7448,
      "oos": 7449,
      "ponds": 7450,
      "in,": 7451,
      " counts": 7452,
      " bones": 7453,
      "alities": 7454,
      "lete": 7455,
      "ion,": 7456,
      " web": 7457,
      " view": 7458,
      "ecca": 7459,
      " ash": 7460,
      " code": 7461,
      "ription": 7462,
      "ammy": 7463,
      "ushes": 7464,
      " plate": 7465,
      " mem": 7466,
      " Cor": 7467,
      " Cos": 7468,
      " car,": 7469,
      "avier": 7470,
      " subt": 7471,
      ".\\]We": 7472,
      " breath": 7473,
      " Liz": 7474,
      " Initial": 7475,
      " seconds.": 7476,
      " line,": 7477,
      " \"to": 7478,
      " constants": 7479,
      " children's": 7480,
      " $r=": 7481,
      ".\nOut": 7482,
      " slices.": 7483,
      "));\n\ndraw(": 7484,
      " extension": 7485,
      " Mark's": 7486,
      "asha": 7487,
      " stroke": 7488,
      "liter": 7489,
      " studying": 7490,
      " jacket": 7491,
      " shorts": 7492,
      " easier": 7493,
      " Jessica": 7494,
      " schedu": 7495,
      "abytes": 7496,
      " Kylie": 7497,
      " September": 7498,
      " ≈": 7499,
      "$.\nThis": 7500,
      "Q,": 7501,
      "\\under": 7502,
      "rim": 7503,
      "w+": 7504,
      "wor": 7505,
      " aud": 7506,
      " mow": 7507,
      " foci": 7508,
      " der": 7509,
      " dots": 7510,
      " indu": 7511,
      " reject": 7512,
      "ifference": 7513,
      "}{|": 7514,
      "elve": 7515,
      " spider": 7516,
      " A=(": 7517,
      " Subtracting": 7518,
      " T-shirts": 7519,
      "),Arrow": 7520,
      " quarts": 7521,
      " price.": 7522,
      " paul": 7523,
      " $a_{": 7524,
      " didn't": 7525,
      " Linds": 7526,
      " develop": 7527,
      " tray": 7528,
      " Shel": 7529,
      " finishing": 7530,
      ";\n\ndraw(": 7531,
      "),S);\nlabel(\"$": 7532,
      " again,": 7533,
      " candies,": 7534,
      " Bobby": 7535,
      " posters": 7536,
      " strings": 7537,
      " semester": 7538,
      " Americ": 7539,
      ");\nfilldraw(": 7540,
      " palindrome": 7541,
      " Brenda": 7542,
      " retirement": 7543,
      " refrigerator": 7544,
      "-r": 7545,
      "-ounce": 7546,
      ".The": 7547,
      "gor": 7548,
      " t^": 7549,
      " tig": 7550,
      " tuesday": 7551,
      " caf": 7552,
      "esian": 7553,
      " mall": 7554,
      " museum": 7555,
      " false": 7556,
      "lear": 7557,
      " rip": 7558,
      "ster": 7559,
      " can't": 7560,
      "lyn": 7561,
      "riel": 7562,
      " S,": 7563,
      " Te": 7564,
      " hours.\n####": 7565,
      " all?": 7566,
      " Four": 7567,
      " Fred": 7568,
      " up,": 7569,
      " weekends": 7570,
      " marath": 7571,
      ")--(i,": 7572,
      " runners": 7573,
      " flav": 7574,
      " flips": 7575,
      " $AP": 7576,
      " weighted": 7577,
      " payc": 7578,
      " Kel": 7579,
      " Kate": 7580,
      " kilos": 7581,
      " vel": 7582,
      "ooth": 7583,
      " $y$-coordinate": 7584,
      "),N);\nlabel(\"$": 7585,
      " inequalities": 7586,
      " Samuel": 7587,
      "helle": 7588,
      " eggs.": 7589,
      "graph(": 7590,
      " carrot": 7591,
      " factored": 7592,
      " hamburger": 7593,
      " Joseph": 7594,
      "\nOn": 7595,
      ",ymax": 7596,
      " partnership": 7597,
      " Stephanie": 7598,
      "ka": 7599,
      "ness": 7600,
      "off": 7601,
      "son": 7602,
      "esc": 7603,
      " mtr": 7604,
      " inner": 7605,
      ".\nGiven": 7606,
      " beat": 7607,
      "rais": 7608,
      " hour:": 7609,
      "tery": 7610,
      ");\nP": 7611,
      "allon": 7612,
      " withdraw": 7613,
      "ies.": 7614,
      " meets": 7615,
      ".\nSetting": 7616,
      " days:": 7617,
      " wheat": 7618,
      "artesian": 7619,
      " cler": 7620,
      " blood": 7621,
      " bag,": 7622,
      " centers": 7623,
      " chef": 7624,
      "issa": 7625,
      " representing": 7626,
      " bars,": 7627,
      " receive?": 7628,
      " rotation": 7629,
      " enclosed": 7630,
      " download": 7631,
      "earranging": 7632,
      " popsic": 7633,
      "(.": 7634,
      ")\nTotal": 7635,
      "\\}": 7636,
      "\\ell": 7637,
      "cre": 7638,
      "rate": 7639,
      "inch": 7640,
      "reed": 7641,
      "ates,": 7642,
      " $j": 7643,
      " mut": 7644,
      " dandel": 7645,
      " gn": 7646,
      " soil": 7647,
      "thony": 7648,
      " shifts": 7649,
      " speed,": 7650,
      "renheit": 7651,
      " gray": 7652,
      " groom": 7653,
      " likely": 7654,
      " acre": 7655,
      "ahrenheit": 7656,
      " substitution": 7657,
      " ways.": 7658,
      "{x}": 7659,
      " insects": 7660,
      " medical": 7661,
      " considered": 7662,
      " saf": 7663,
      " sunda": 7664,
      " raisins": 7665,
      " asking": 7666,
      ");\n\nlabel(\"$A$\",": 7667,
      "pi/": 7668,
      " corresponds": 7669,
      " continue": 7670,
      " hardc": 7671,
      " watermelons": 7672,
      " assigned": 7673,
      "Equation": 7674,
      "color,": 7675,
      "}{y}": 7676,
      " bouquets": 7677,
      " magazines": 7678,
      " component": 7679,
      " quickly": 7680,
      " Gerald": 7681,
      " grandmother": 7682,
      "works": 7683,
      "'re": 7684,
      ").\nThe": 7685,
      "))*(": 7686,
      "-n": 7687,
      "d,": 7688,
      "iest": 7689,
      "ts,": 7690,
      "{[": 7691,
      "atures": 7692,
      " pumps": 7693,
      " $V": 7694,
      "onal": 7695,
      " x)^": 7696,
      " neg": 7697,
      " (p": 7698,
      " (which": 7699,
      "et,": 7700,
      ".\nNow,": 7701,
      "icago": 7702,
      " whom": 7703,
      " whales": 7704,
      "rah": 7705,
      " storm": 7706,
      "abla": 7707,
      " assem": 7708,
      " proceed": 7709,
      " Sean": 7710,
      " $x.$": 7711,
      " all.": 7712,
      "ity,": 7713,
      " upper": 7714,
      " grid": 7715,
      " solutions,": 7716,
      " discard": 7717,
      " $x$?": 7718,
      " Anton": 7719,
      " team.": 7720,
      " salesman": 7721,
      " $C$,": 7722,
      " dozens": 7723,
      " denominators": 7724,
      ";\n\nreal": 7725,
      "{v}_": 7726,
      " congruence": 7727,
      "uffy": 7728,
      " handshakes": 7729,
      " muffin": 7730,
      "{gcd}(": 7731,
      " squirrels": 7732,
      "+C)/": 7733,
      " (mod": 7734,
      "\\nabla": 7735,
      "!(": 7736,
      ")&=": 7737,
      "-point": 7738,
      "k+": 7739,
      "mers": 7740,
      "n],": 7741,
      " pace": 7742,
      " map": 7743,
      " mention": 7744,
      " dance": 7745,
      " gear": 7746,
      " wear": 7747,
      " rug": 7748,
      " rib": 7749,
      " equip": 7750,
      "child": 7751,
      "\\small": 7752,
      " one-fourth": 7753,
      " Mir": 7754,
      " minutes.\nThe": 7755,
      " milks": 7756,
      "\\]\n\\[": 7757,
      " P(": 7758,
      "for(": 7759,
      " digits,": 7760,
      "{align*}\nx": 7761,
      "{align*}Since": 7762,
      " became": 7763,
      " drum": 7764,
      " Grace": 7765,
      " commun": 7766,
      " Kenn": 7767,
      " agreed": 7768,
      " \"suppose": 7769,
      " calculating": 7770,
      " |x": 7771,
      " dollars?": 7772,
      " typed": 7773,
      " resultant": 7774,
      " $m+n": 7775,
      "cluding": 7776,
      " stopped": 7777,
      ".$\n\nIf": 7778,
      "}}$.The": 7779,
      " design": 7780,
      " $AB=": 7781,
      "graf[n],": 7782,
      "pril": 7783,
      " ceiling": 7784,
      "&$+$": 7785,
      " July": 7786,
      " internet": 7787,
      " parenthes": 7788,
      " bolts": 7789,
      " Assuming": 7790,
      " highlighters": 7791,
      " milliliters": 7792,
      ")]": 7793,
      "))--(": 7794,
      "bb": 7795,
      "f(-": 7796,
      "oir": 7797,
      "walk": 7798,
      "}x": 7799,
      "})$": 7800,
      " tasks": 7801,
      " pony": 7802,
      " tour": 7803,
      " and\n\\[": 7804,
      " threw": 7805,
      "ional": 7806,
      " vow": 7807,
      " vice": 7808,
      " yes": 7809,
      "terior": 7810,
      " April": 7811,
      " Tre": 7812,
      " hours?": 7813,
      " Jer": 7814,
      " BD": 7815,
      " French": 7816,
      "{pro": 7817,
      " forms": 7818,
      " brick": 7819,
      " bought.\nLet's": 7820,
      "ensity": 7821,
      " Kelly": 7822,
      " cooking": 7823,
      " restric": 7824,
      "overs": 7825,
      " row.": 7826,
      " eligible": 7827,
      " skips": 7828,
      " Britt": 7829,
      " lawns": 7830,
      "EF$": 7831,
      " motorc": 7832,
      " interview": 7833,
      " majors": 7834,
      " \"when": 7835,
      " alternate": 7836,
      "}{r}{}": 7837,
      " necessary": 7838,
      " Luke": 7839,
      " Natal": 7840,
      " composite": 7841,
      " reservoir": 7842,
      " gnomes": 7843,
      "$.\nSubtracting": 7844,
      "$.\nTaking": 7845,
      "(a^": 7846,
      ")\n\n": 7847,
      "/$": 7848,
      "H,": 7849,
      "dir(-": 7850,
      "eled": 7851,
      "factor": 7852,
      "hi": 7853,
      "j}_{": 7854,
      "t-": 7855,
      " public": 7856,
      " ferry": 7857,
      "alties": 7858,
      "oring": 7859,
      " liz": 7860,
      "ifer": 7861,
      "lym": 7862,
      " k^": 7863,
      " leads": 7864,
      " reminder": 7865,
      " time:": 7866,
      " more.": 7867,
      " Five": 7868,
      " squares,": 7869,
      "ogonal": 7870,
      " smooth": 7871,
      " age.": 7872,
      " balls.": 7873,
      "ighth": 7874,
      " personal": 7875,
      " $c=": 7876,
      " Chines": 7877,
      " owned": 7878,
      " indic": 7879,
      "ship": 7880,
      " sequences": 7881,
      " imo": 7882,
      " imag": 7883,
      " logs": 7884,
      " repeat": 7885,
      "-page": 7886,
      " $BC$": 7887,
      "iamond": 7888,
      ")--cycle,gray(": 7889,
      " $q$": 7890,
      "}{c}": 7891,
      " loaned": 7892,
      " seasons": 7893,
      " jogger": 7894,
      " Kayla": 7895,
      " reporters": 7896,
      " website": 7897,
      " april": 7898,
      "ltogether,": 7899,
      " buffal": 7900,
      "*I": 7901,
      "lers": 7902,
      "yz": 7903,
      " award": 7904,
      " sd": 7905,
      " bd": 7906,
      "aco": 7907,
      " ethan": 7908,
      "et.": 7909,
      " life": 7910,
      " spread": 7911,
      " spiders": 7912,
      "}$\nGiven": 7913,
      ");\nA": 7914,
      "urface": 7915,
      " work.": 7916,
      " upon": 7917,
      "ogn": 7918,
      " form\n\\[": 7919,
      "bability": 7920,
      "_{i": 7921,
      " linewidth(": 7922,
      "$.\nF": 7923,
      " cats,": 7924,
      " $P(": 7925,
      " oranges.": 7926,
      " $(x^": 7927,
      " functions": 7928,
      "{b}\\|": 7929,
      " denominator,": 7930,
      " polynomials": 7931,
      ");\ndot((": 7932,
      " Zach": 7933,
      " diagram,": 7934,
      " push-ups": 7935,
      " adopted": 7936,
      " Point": 7937,
      "original": 7938,
      " effect": 7939,
      " royalties": 7940,
      " dessert": 7941,
      " conjugate": 7942,
      " marathon": 7943,
      "{proj}_{": 7944,
      "$;": 7945,
      "?$": 7946,
      "O$\",": 7947,
      "X}{": 7948,
      "roy": 7949,
      "}|": 7950,
      " tape": 7951,
      "orrow": 7952,
      " (int": 7953,
      " (Equation": 7954,
      ".\n\\]": 7955,
      ".\nNow": 7956,
      " weed": 7957,
      "vex": 7958,
      " rail": 7959,
      " lives": 7960,
      "os(": 7961,
      " aside": 7962,
      " what's": 7963,
      " concept": 7964,
      "oop": 7965,
      " Jun": 7966,
      " Bry": 7967,
      " marsh": 7968,
      " Dividing": 7969,
      " runner": 7970,
      " lessons": 7971,
      " bran": 7972,
      " adv": 7973,
      " fish.": 7974,
      "\nCase": 7975,
      " $k=": 7976,
      " Monica": 7977,
      " away.": 7978,
      " game.": 7979,
      "clock": 7980,
      " listed": 7981,
      " logar": 7982,
      "point(": 7983,
      " desc": 7984,
      " holes": 7985,
      "ormal": 7986,
      "{array}{c": 7987,
      " deduct": 7988,
      " orthogonal": 7989,
      " oysters": 7990,
      " restriction": 7991,
      " marshmall": 7992,
      ",T": 7993,
      "Expanding,": 7994,
      "hu": 7995,
      "{and": 7996,
      "hews": 7997,
      " ci": 7998,
      " pood": 7999,
      " $K": 8000,
      " mist": 8001,
      " fert": 8002,
      " dimin": 8003,
      " stage": 8004,
      " \"per": 8005,
      ":\n\n$": 8006,
      " twelve": 8007,
      " union": 8008,
      " shrim": 8009,
      " one-": 8010,
      " jumps": 8011,
      " Mal": 8012,
      "),W);\nlabel(\"$": 8013,
      " district": 8014,
      " left?\nIf": 8015,
      " salmon": 8016,
      ".\\]Thus,": 8017,
      " Roger": 8018,
      " colony": 8019,
      "\\lamb": 8020,
      " base-": 8021,
      "\\delta": 8022,
      "ia,": 8023,
      " team,": 8024,
      " needed:": 8025,
      " presents": 8026,
      "{x_": 8027,
      " graphs": 8028,
      "\nHis": 8029,
      " activ": 8030,
      " quarterly": 8031,
      " Monday.": 8032,
      " holiday": 8033,
      " gummy": 8034,
      " \"distance": 8035,
      " knit": 8036,
      " widget": 8037,
      " individually": 8038,
      " passenger": 8039,
      " Lucy": 8040,
      " fundrais": 8041,
      " pressure": 8042,
      " stemmed": 8043,
      " supposed": 8044,
      "ompleting": 8045,
      " orchard": 8046,
      ")--(xmax": 8047,
      " fertil": 8048,
      "\\lambda": 8049,
      "mith": 8050,
      "s?": 8051,
      "x.\nDividing": 8052,
      "y$": 8053,
      "yd": 8054,
      " site": 8055,
      " c_": 8056,
      " thick": 8057,
      " (P": 8058,
      " (k": 8059,
      " looks": 8060,
      " reap": 8061,
      "}{a^": 8062,
      " spherical": 8063,
      " frost": 8064,
      "angu": 8065,
      " shoes,": 8066,
      "),E);\nlabel(\"$": 8067,
      " Cam": 8068,
      " B=(": 8069,
      " amount.": 8070,
      " carri": 8071,
      " research": 8072,
      " seller": 8073,
      " $n-": 8074,
      " displ": 8075,
      "$.\nUsing": 8076,
      " Iv": 8077,
      "));\ndraw(O--": 8078,
      "rofit": 8079,
      "\nAverage": 8080,
      " combined?": 8081,
      " pound.": 8082,
      " losses": 8083,
      " handle": 8084,
      ");\n[/asy]\n": 8085,
      " saus": 8086,
      " barrel": 8087,
      " $ABC$,": 8088,
      " posted": 8089,
      " removes": 8090,
      " ``": 8091,
      "orns": 8092,
      " bringing": 8093,
      " supplier": 8094,
      " afternoon,": 8095,
      " typical": 8096,
      " statue": 8097,
      "ozen": 8098,
      " toothp": 8099,
      " progression": 8100,
      "{gcd}\\,(": 8101,
      "))^": 8102,
      "cy": 8103,
      "mond": 8104,
      "w^": 8105,
      "x)^": 8106,
      "{l": 8107,
      " texts": 8108,
      "hels": 8109,
      "isb": 8110,
      " dos": 8111,
      " dir(-": 8112,
      " hum": 8113,
      " xmin": 8114,
      "ascal": 8115,
      ".\n\n$": 8116,
      " lamp": 8117,
      " total.\n####": 8118,
      " asc": 8119,
      "els,": 8120,
      "verting": 8121,
      " leaps": 8122,
      ":\nNumber": 8123,
      " AO": 8124,
      " get?": 8125,
      " minnow": 8126,
      " doors": 8127,
      " exterior": 8128,
      "and\n\\[": 8129,
      " more,": 8130,
      " variety": 8131,
      " seen": 8132,
      " leftover": 8133,
      " suits": 8134,
      " $A_": 8135,
      "cccc": 8136,
      ".\nHalf": 8137,
      " bushels": 8138,
      "}.\\]Since": 8139,
      " fish,": 8140,
      "$?\n\n": 8141,
      " acute": 8142,
      ")))": 8143,
      " mileage": 8144,
      "ednesday": 8145,
      " barrels": 8146,
      " knives": 8147,
      " Leo": 8148,
      " vehicle": 8149,
      " coefficients,": 8150,
      " Carlos": 8151,
      "affe": 8152,
      " melted": 8153,
      " sharks": 8154,
      " chloride": 8155,
      " thirty": 8156,
      " Christmas": 8157,
      " Chinese": 8158,
      "\nIt": 8159,
      "*J": 8160,
      "/m": 8161,
      "A=": 8162,
      "B=": 8163,
      "Volume": 8164,
      "a_n": 8165,
      "joy": 8166,
      "loe": 8167,
      "rices": 8168,
      "hell": 8169,
      "iscount": 8170,
      "atives": 8171,
      " p(": 8172,
      " punch": 8173,
      "oni": 8174,
      " hous": 8175,
      " tok": 8176,
      "itive": 8177,
      " nos": 8178,
      " (The": 8179,
      "iment": 8180,
      "cepts": 8181,
      " by\n\\[": 8182,
      " equation.": 8183,
      " orc": 8184,
      "uss": 8185,
      "\\sim": 8186,
      " jewel": 8187,
      "udy": 8188,
      " minutes\nThen": 8189,
      " week.\n####": 8190,
      " weekdays": 8191,
      " leftmost": 8192,
      " outer": 8193,
      " trained": 8194,
      " $x$-coordinate": 8195,
      " order.": 8196,
      " curve": 8197,
      ".\nAccording": 8198,
      "robability": 8199,
      " enjoy": 8200,
      " full,": 8201,
      " raj": 8202,
      " away,": 8203,
      " draw((-": 8204,
      " family.": 8205,
      "new": 8206,
      " Bob's": 8207,
      " desks": 8208,
      " triangles,": 8209,
      " bowls": 8210,
      " biggest": 8211,
      " sweater": 8212,
      " processing": 8213,
      "ommand": 8214,
      " bench": 8215,
      " vanilla": 8216,
      "A$\",A,S": 8217,
      " components": 8218,
      " wedding": 8219,
      " diffic": 8220,
      " Jamie": 8221,
      "\\Diamond": 8222,
      " backpack": 8223,
      " elevator": 8224,
      " iPhone": 8225,
      " A,B,C,D,": 8226,
      "for(int": 8227,
      " ethanol": 8228,
      " dosage": 8229,
      "$:\n": 8230,
      "-l": 8231,
      "aired": 8232,
      "gn": 8233,
      "riting": 8234,
      "year": 8235,
      "}_": 8236,
      " ol": 8237,
      " send": 8238,
      " c,": 8239,
      " pear": 8240,
      " fat": 8241,
      " touch": 8242,
      " eur": 8243,
      " lat": 8244,
      " vers": 8245,
      "ira": 8246,
      " on.": 8247,
      " heart": 8248,
      " king": 8249,
      "}$.\nWe": 8250,
      "}$\nMultiplying": 8251,
      " Section": 8252,
      " convex": 8253,
      " hours.\nThe": 8254,
      " minutes.\n####": 8255,
      " Barry": 8256,
      " Weight": 8257,
      " discount.": 8258,
      " curved": 8259,
      " annie": 8260,
      "{align*}\n(": 8261,
      " voted": 8262,
      " sandbox": 8263,
      " Vin": 8264,
      " Vic": 8265,
      "\\\\\n&": 8266,
      " paper,": 8267,
      " equations:\n$": 8268,
      " patient": 8269,
      " imp": 8270,
      " cutting": 8271,
      " dot(\"$": 8272,
      " baker": 8273,
      " babies": 8274,
      " Stat": 8275,
      " pumpkin": 8276,
      ".\nWith": 8277,
      " (number": 8278,
      "conom": 8279,
      " deepak": 8280,
      ");\nfill((": 8281,
      " owes": 8282,
      " observation": 8283,
      "mm}": 8284,
      " macarons": 8285,
      " accepted": 8286,
      "projection": 8287,
      " pretz": 8288,
      " hardcover": 8289,
      ")\nTo": 8290,
      ",(": 8291,
      "-.": 8292,
      "]$": 8293,
      "c=": 8294,
      "c}": 8295,
      "kip": 8296,
      "x$.": 8297,
      " sine": 8298,
      " c}": 8299,
      " pir": 8300,
      "aley": 8301,
      "lease": 8302,
      " nest": 8303,
      " latest": 8304,
      "irm": 8305,
      " prote": 8306,
      " as:\n$": 8307,
      "ules": 8308,
      ">>.": 8309,
      " league": 8310,
      " friday": 8311,
      " Squaring": 8312,
      "used": 8313,
      " first.": 8314,
      " Cher": 8315,
      " Cla": 8316,
      " minutes\nTime": 8317,
      " carries": 8318,
      " x,$": 8319,
      " triples": 8320,
      "avers": 8321,
      " half,": 8322,
      " factoring": 8323,
      " sidewalk": 8324,
      " oldest": 8325,
      " partial": 8326,
      " Gary": 8327,
      " $f(-": 8328,
      " pay?": 8329,
      " over.": 8330,
      " bookstore": 8331,
      "{b}{": 8332,
      " assistant": 8333,
      " enroll": 8334,
      "{c}{": 8335,
      " games.": 8336,
      " round,": 8337,
      " $y$-intercept": 8338,
      "));\n\ndraw((": 8339,
      " image": 8340,
      " tickets.": 8341,
      ".$\n\n[asy]\nunitsize(": 8342,
      " rainy": 8343,
      " sister,": 8344,
      " butterf": 8345,
      " legs,": 8346,
      " Q,": 8347,
      "iamonds": 8348,
      " review": 8349,
      " drawer": 8350,
      " climbing": 8351,
      " Marcy": 8352,
      " stayed": 8353,
      " foreign": 8354,
      " Plugging": 8355,
      "linetype(\"": 8356,
      " puzzles": 8357,
      " Additional": 8358,
      " respons": 8359,
      " leading": 8360,
      " achieve": 8361,
      " \"you": 8362,
      " subtraction": 8363,
      ")\\]": 8364,
      "))/": 8365,
      "\\{": 8366,
      "c_": 8367,
      "iant": 8368,
      "{x+": 8369,
      "inter": 8370,
      "eron": 8371,
      " bin": 8372,
      "atu": 8373,
      " f^{-": 8374,
      " hike": 8375,
      "acter": 8376,
      " (a^": 8377,
      " onions": 8378,
      " beaded": 8379,
      " star": 8380,
      " \"lets": 8381,
      "urch": 8382,
      " shell": 8383,
      "\\sec": 8384,
      " need?": 8385,
      " Math": 8386,
      " C=(": 8387,
      " Far": 8388,
      ",$$": 8389,
      " rather": 8390,
      " $a_n": 8391,
      " rate,": 8392,
      " Re": 8393,
      " Recall": 8394,
      " simplifying": 8395,
      " pian": 8396,
      " boys,": 8397,
      "atory": 8398,
      " recogn": 8399,
      ";\npair": 8400,
      " listen": 8401,
      "[asy]\nimport": 8402,
      " flowers,": 8403,
      " social": 8404,
      " season,": 8405,
      "return": 8406,
      " knives,": 8407,
      " $w$": 8408,
      " columns": 8409,
      " racing": 8410,
      " supply": 8411,
      " Simon": 8412,
      " turkey": 8413,
      " permut": 8414,
      " democrats": 8415,
      " benefit": 8416,
      "graph(func,-": 8417,
      "$),": 8418,
      "D$\",(": 8419,
      "EE": 8420,
      "Fill": 8421,
      "Q$\",": 8422,
      "X=": 8423,
      "han": 8424,
      "i}": 8425,
      "jay": 8426,
      "surface": 8427,
      "x\n": 8428,
      "x<": 8429,
      "}&=": 8430,
      " ties": 8431,
      " august": 8432,
      "reos": 8433,
      " bunch": 8434,
      " bund": 8435,
      "atch": 8436,
      " toast": 8437,
      " econom": 8438,
      " nap": 8439,
      " nail": 8440,
      " rank": 8441,
      "sticks": 8442,
      "above": 8443,
      " \"work": 8444,
      " spoon": 8445,
      ");\nreal": 8446,
      " AE": 8447,
      "usc": 8448,
      " jul": 8449,
      " cars.": 8450,
      " fees": 8451,
      " clown": 8452,
      " client": 8453,
      " month:": 8454,
      " Danny": 8455,
      " Pascal": 8456,
      " Rh": 8457,
      " Reg": 8458,
      "letter": 8459,
      " $y=-": 8460,
      " matrices": 8461,
      "$.\n\nThe": 8462,
      " advert": 8463,
      " realizes": 8464,
      " jobs": 8465,
      " food.": 8466,
      " green,": 8467,
      " throughout": 8468,
      " white,": 8469,
      " friend's": 8470,
      " maths": 8471,
      " basically": 8472,
      "-meter": 8473,
      " grandchild": 8474,
      "plying": 8475,
      " silverware": 8476,
      " labeled": 8477,
      " provided": 8478,
      " electricity": 8479,
      " cashier": 8480,
      " \"length": 8481,
      " Martin": 8482,
      "abs(": 8483,
      " prepared": 8484,
      " connecting": 8485,
      " haircut": 8486,
      " stereos": 8487,
      " Expanding": 8488,
      " technic": 8489,
      " autom": 8490,
      " Pascal's": 8491,
      " ens": 8492,
      "(c": 8493,
      "=x^": 8494,
      "AM": 8495,
      "D\",": 8496,
      "\\z": 8497,
      "gl": 8498,
      "i$,": 8499,
      "m^": 8500,
      "rop": 8501,
      "tuce": 8502,
      " wednesday": 8503,
      " f(x": 8504,
      "arant": 8505,
      "acc": 8506,
      "umul": 8507,
      ".\nLet": 8508,
      " gms": 8509,
      " reb": 8510,
      "iring": 8511,
      " that\n": 8512,
      " ymax": 8513,
      "akers": 8514,
      " frozen": 8515,
      " Sk": 8516,
      " champ": 8517,
      "ender": 8518,
      " shark": 8519,
      " extern": 8520,
      " Mc": 8521,
      " Mandy": 8522,
      " Justin": 8523,
      " Jasmine": 8524,
      "Weight": 8525,
      " Furthermore,": 8526,
      "^{k": 8527,
      " lettuce": 8528,
      " boxc": 8529,
      " themsel": 8530,
      " Our": 8531,
      " completion": 8532,
      " Thomas": 8533,
      " trash": 8534,
      " height,": 8535,
      " entr": 8536,
      " members,": 8537,
      " $c$,": 8538,
      " park.": 8539,
      " flour,": 8540,
      " pens,": 8541,
      " character": 8542,
      "...": 8543,
      " continu": 8544,
      " generated": 8545,
      " approaches": 8546,
      "top,": 8547,
      " ladder": 8548,
      "ilson": 8549,
      " portra": 8550,
      " beads,": 8551,
      " understand": 8552,
      "{and}": 8553,
      "\\zeta": 8554,
      "\n\\\\": 8555,
      " ≡": 8556,
      "))$": 8557,
      "/.": 8558,
      "PQ": 8559,
      "S$": 8560,
      "To": 8561,
      "_axes": 8562,
      "nol": 8563,
      "ober": 8564,
      "eral": 8565,
      " wing": 8566,
      " pow": 8567,
      " dies": 8568,
      " x=": 8569,
      " x_{": 8570,
      "itals": 8571,
      " located": 8572,
      " ymin": 8573,
      " provisions": 8574,
      " get:\n\\[": 8575,
      " two-thirds": 8576,
      " exists": 8577,
      "),W": 8578,
      "^{n-": 8579,
      "ups": 8580,
      "avg": 8581,
      " $a+": 8582,
      " compare": 8583,
      " button": 8584,
      " pounds.\nThe": 8585,
      " crow": 8586,
      " old.\nThe": 8587,
      " these,": 8588,
      " meters,": 8589,
      " line.": 8590,
      ");\n\n}\n\n": 8591,
      " Ian": 8592,
      " \\[(": 8593,
      " formulas": 8594,
      " dollars.\nThe": 8595,
      " sq.": 8596,
      " outcome": 8597,
      "_{n+": 8598,
      " Jennifer": 8599,
      " coins,": 8600,
      " reflection": 8601,
      " dealer": 8602,
      "riginal": 8603,
      "{aligned}\\]": 8604,
      " wrongly": 8605,
      " tossed": 8606,
      " magazine": 8607,
      "bottom,": 8608,
      " incurred": 8609,
      " jewelry": 8610,
      " powder": 8611,
      "$.\nSo": 8612,
      "-liter": 8613,
      "P_": 8614,
      "What": 8615,
      "gart": 8616,
      "ground": 8617,
      "lower": 8618,
      " tents": 8619,
      " cable": 8620,
      " cities": 8621,
      " $J": 8622,
      "iter": 8623,
      "umb": 8624,
      "}{a_": 8625,
      " stone": 8626,
      " %\"": 8627,
      "egar": 8628,
      " Wal": 8629,
      " Ticks(\"%\",": 8630,
      " chord": 8631,
      " shower": 8632,
      " showing": 8633,
      " allocated": 8634,
      " kmh": 8635,
      " Fer": 8636,
      " sew": 8637,
      " miles.\nThe": 8638,
      " opens": 8639,
      " i,": 8640,
      " box:": 8641,
      " Larry": 8642,
      " gram": 8643,
      " follows:\n$": 8644,
      " \"sp": 8645,
      " tickdown": 8646,
      ")*$": 8647,
      " equation:\n(": 8648,
      " boxes.": 8649,
      ")=(": 8650,
      "}.\\]S": 8651,
      " way,": 8652,
      "bler": 8653,
      " handled": 8654,
      "\\rho": 8655,
      " eddy": 8656,
      "indergart": 8657,
      " triangles.": 8658,
      " $s^": 8659,
      " market.": 8660,
      "}{b^": 8661,
      " Tuesday.": 8662,
      " potato": 8663,
      ",ytop": 8664,
      " flyers": 8665,
      " Grant": 8666,
      " entered": 8667,
      "defined": 8668,
      " Before": 8669,
      " racers": 8670,
      "[asy]\n\n": 8671,
      " {\n\nx": 8672,
      "{BC}$": 8673,
      "C$\",C,S": 8674,
      " pineap": 8675,
      " ignore": 8676,
      " skirts": 8677,
      "{th}}$": 8678,
      " hiker": 8679,
      " vinegar": 8680,
      " splits": 8681,
      " treasure": 8682,
      " cultiv": 8683,
      "icksArrx": 8684,
      " diminished": 8685,
      " shrimp": 8686,
      " protein": 8687,
      " ¢": 8688,
      ")^{-": 8689,
      "-letter": 8690,
      "Z$": 8691,
      "n)$": 8692,
      "pings": 8693,
      "skip": 8694,
      "y|": 8695,
      "{\n\n": 8696,
      " ads": 8697,
      "ines,": 8698,
      " michael": 8699,
      "ons,": 8700,
      "onze": 8701,
      " dram": 8702,
      " golf": 8703,
      " langu": 8704,
      "imits": 8705,
      " varies": 8706,
      " canoes": 8707,
      "change": 8708,
      ".\nThen,": 8709,
      ");\nlabel(": 8710,
      " have:": 8711,
      "unit": 8712,
      " Man": 8713,
      " trading": 8714,
      " all,": 8715,
      " City": 8716,
      " studies": 8717,
      " sett": 8718,
      " Easter": 8719,
      " compan": 8720,
      " $(a,": 8721,
      " units.\nThe": 8722,
      " december": 8723,
      " sliced": 8724,
      " whereas": 8725,
      " }\n": 8726,
      "$.\nIn": 8727,
      " central": 8728,
      "\\diamonds": 8729,
      " membership": 8730,
      " doubling": 8731,
      " impr": 8732,
      "$\n$X": 8733,
      "axis(": 8734,
      " checking": 8735,
      "piad": 8736,
      "person": 8737,
      " charact": 8738,
      " climbs": 8739,
      " tomorrow": 8740,
      " jackets": 8741,
      " Hence,\n\\[": 8742,
      " usually": 8743,
      " cherries": 8744,
      " falls": 8745,
      " labor": 8746,
      " Joey": 8747,
      "&$-$": 8748,
      " textbooks": 8749,
      "hecking": 8750,
      " Erica": 8751,
      " daisies": 8752,
      " pulled": 8753,
      " reunion": 8754,
      "\\smallskip": 8755,
      "lympiad": 8756,
      " minnows": 8757,
      "\\diamondsuit": 8758,
      "$\nSince": 8759,
      "-st": 8760,
      "A_": 8761,
      "C);": 8762,
      "When": 8763,
      "lubs": 8764,
      "x|": 8765,
      "{N": 8766,
      "|a": 8767,
      " olympiad": 8768,
      " sne": 8769,
      " pb": 8770,
      "onies": 8771,
      " gig": 8772,
      "str": 8773,
      " vans": 8774,
      " upl": 8775,
      "erson": 8776,
      " coal": 8777,
      "elia": 8778,
      "\\clubs": 8779,
      " day.\nIn": 8780,
      "eggy": 8781,
      " Tyler": 8782,
      " compl": 8783,
      "unte": 8784,
      " one,": 8785,
      " Beck": 8786,
      " Factoring": 8787,
      " Del": 8788,
      " ears": 8789,
      " comparing": 8790,
      " composed": 8791,
      " digit.": 8792,
      "ment,": 8793,
      " arms": 8794,
      " dev": 8795,
      " slant": 8796,
      " discounts": 8797,
      " cert": 8798,
      " volunte": 8799,
      " mixes": 8800,
      " pieces.": 8801,
      ".\nAn": 8802,
      " serve": 8803,
      " combined,": 8804,
      " test,": 8805,
      "+bx+": 8806,
      ";\n\nfor": 8807,
      ".$\n\nSince": 8808,
      " joining": 8809,
      " closer": 8810,
      " vacc": 8811,
      " videos": 8812,
      " bisector": 8813,
      " motorists": 8814,
      " freshmen": 8815,
      " $R$": 8816,
      " bouquet": 8817,
      ",ymin": 8818,
      " wickets": 8819,
      " Gabriel": 8820,
      " popsicle": 8821,
      "above=true": 8822,
      "\\clubsuit": 8823,
      "&-": 8824,
      ")\nLet's": 8825,
      ",x": 8826,
      "a}": 8827,
      "com": 8828,
      "cher": 8829,
      "ras": 8830,
      "ule": 8831,
      "{E": 8832,
      "{q": 8833,
      " tel": 8834,
      " ast": 8835,
      " affor": 8836,
      " owe": 8837,
      " sick": 8838,
      " sons": 8839,
      "reation": 8840,
      " cot": 8841,
      " anal": 8842,
      " geck": 8843,
      " rings": 8844,
      " why": 8845,
      "ation,": 8846,
      " stands": 8847,
      "ersey": 8848,
      "ams": 8849,
      " lee": 8850,
      "changed": 8851,
      " frisb": 8852,
      " algor": 8853,
      " Sue": 8854,
      " Smith": 8855,
      " car.": 8856,
      " numbers?": 8857,
      " equally,": 8858,
      "{pmatrix}$,": 8859,
      " out,": 8860,
      " Over": 8861,
      " arg": 8862,
      " even.": 8863,
      " centimeter": 8864,
      "ribes": 8865,
      " recreation": 8866,
      " $p(x)$": 8867,
      " believe": 8868,
      "[asy]\ndraw((": 8869,
      " law": 8870,
      " centimeters.": 8871,
      " snacks": 8872,
      " Friday.": 8873,
      " pige": 8874,
      " petrol": 8875,
      " trees,": 8876,
      " [asy]\npair": 8877,
      " averaged": 8878,
      " statues": 8879,
      " antac": 8880,
      " newspaper": 8881,
      " burns": 8882,
      " nickels,": 8883,
      " Laura": 8884,
      " cosine": 8885,
      " $(x,y)$": 8886,
      " Wendy": 8887,
      " diploma": 8888,
      "crease": 8889,
      " entrance": 8890,
      "nolight": 8891,
      "+q": 8892,
      "+x^": 8893,
      "-val": 8894,
      ";i": 8895,
      "cle": 8896,
      "kins": 8897,
      "erg": 8898,
      " wine": 8899,
      " cabb": 8900,
      " ble": 8901,
      " bitc": 8902,
      " mm": 8903,
      "alt": 8904,
      "arily": 8905,
      " efficient": 8906,
      "oura": 8907,
      " label(": 8908,
      " vi": 8909,
      " canoe": 8910,
      " ur": 8911,
      " \"j": 8912,
      " \"original": 8913,
      " spaced": 8914,
      "}$\nSimplifying,": 8915,
      " alph": 8916,
      " sided": 8917,
      " Trac": 8918,
      " condu": 8919,
      " door": 8920,
      " Mason": 8921,
      " washes": 8922,
      "arting": 8923,
      " distinguishable": 8924,
      " better": 8925,
      "\n\nLet's": 8926,
      "reng": 8927,
      " gratu": 8928,
      " Ralph": 8929,
      " possible.": 8930,
      "{align*}The": 8931,
      " solution.": 8932,
      ")(a^": 8933,
      "ccos": 8934,
      " $XY": 8935,
      ");\n\ndot(\"$": 8936,
      " advan": 8937,
      " II": 8938,
      " packed": 8939,
      " bills.": 8940,
      " Johnny": 8941,
      " dog,": 8942,
      "})^{": 8943,
      " bread,": 8944,
      " watts": 8945,
      " belong": 8946,
      " edit": 8947,
      " border": 8948,
      " plane,": 8949,
      " garden.": 8950,
      " Janice": 8951,
      ")--cycle,linewidth(": 8952,
      " treats": 8953,
      " [asy]\nimport": 8954,
      " portions": 8955,
      "(A,B,": 8956,
      ");\nC=(": 8957,
      " carpets": 8958,
      ".\\]Then\n\\[": 8959,
      " software": 8960,
      "\\arccos": 8961,
      " Twice": 8962,
      " roses,": 8963,
      " imaginary": 8964,
      " buffaloes": 8965,
      " marshmallows": 8966,
      ",Ticks": 8967,
      " afford": 8968,
      " bitcoin": 8969,
      " advanced": 8970,
      "$:": 8971,
      "/year": 8972,
      "C=": 8973,
      "D=": 8974,
      "G,": 8975,
      "\\}$.": 8976,
      "_b": 8977,
      "can": 8978,
      "iled": 8979,
      "n=": 8980,
      "x$\",(": 8981,
      "{,": 8982,
      "|^": 8983,
      " oxy": 8984,
      " sack": 8985,
      " cit": 8986,
      " pud": 8987,
      " poll": 8988,
      " ..": 8989,
      "leg": 8990,
      " (real": 8991,
      " (Cost": 8992,
      ".\n\nSince": 8993,
      " gmat": 8994,
      " lens": 8995,
      " lux": 8996,
      " refill": 8997,
      " streng": 8998,
      " as:\n": 8999,
      " cob": 9000,
      " manages": 9001,
      " day.\nThe": 9002,
      "}$\nTo": 9003,
      ");\nF": 9004,
      ");\ntriple": 9005,
      " Sn": 9006,
      " Sand": 9007,
      " minim": 9008,
      " undefined": 9009,
      " shakes": 9010,
      " jersey": 9011,
      " sides.": 9012,
      " miles/hour": 9013,
      "izers": 9014,
      " trial": 9015,
      " Peggy": 9016,
      " teena": 9017,
      " possible,": 9018,
      " Gina": 9019,
      " order,": 9020,
      ".\nAltogether,": 9021,
      " combining": 9022,
      " surf": 9023,
      " combined.": 9024,
      " function,": 9025,
      " \"cp": 9026,
      " landing": 9027,
      "^n}": 9028,
      " individuals": 9029,
      " dimension": 9030,
      " practiced": 9031,
      " Calvin": 9032,
      " cycles": 9033,
      ");\nB=(": 9034,
      "wise,": 9035,
      " Juan": 9036,
      "-year": 9037,
      " chapter": 9038,
      " $i^": 9039,
      " haircuts": 9040,
      " sisters": 9041,
      " Neil": 9042,
      "cholars": 9043,
      "|,|": 9044,
      " shadow": 9045,
      "\\underline": 9046,
      " American": 9047,
      " Claire": 9048,
      " companies": 9049,
      " gratuity": 9050,
      " oxyg": 9051,
      " es": 9052,
      "$\nWe": 9053,
      "(l": 9054,
      "B$,": 9055,
      "Sin": 9056,
      "[i": 9057,
      "gle": 9058,
      "ilet": 9059,
      "r.": 9060,
      "uri": 9061,
      "{e": 9062,
      "ising": 9063,
      " is:\n": 9064,
      " dres": 9065,
      "le,": 9066,
      "aces,": 9067,
      ".\nN": 9068,
      " krish": 9069,
      " coaster": 9070,
      "amin": 9071,
      " frog": 9072,
      " Average": 9073,
      " Ter": 9074,
      " jogs": 9075,
      " C)/": 9076,
      " Bel": 9077,
      " squared": 9078,
      " Dawn": 9079,
      " Per": 9080,
      ".\\]Find": 9081,
      " grown": 9082,
      " sufficient": 9083,
      " units?": 9084,
      " follows:": 9085,
      " meters.": 9086,
      " discovered": 9087,
      ");\n\nreal": 9088,
      " calculations": 9089,
      " given:\nP": 9090,
      " expense": 9091,
      " cross-multiply": 9092,
      "{b},$": 9093,
      " milk.": 9094,
      " formula,\n\\[": 9095,
      " entry": 9096,
      " marker": 9097,
      " pizza,": 9098,
      " loom": 9099,
      "_n^": 9100,
      " chairs,": 9101,
      "atherine": 9102,
      " journeymen": 9103,
      " Jack's": 9104,
      " keeping": 9105,
      " particular,": 9106,
      " jumped": 9107,
      " Leila": 9108,
      " fastest": 9109,
      " spring": 9110,
      " assignment": 9111,
      " broke": 9112,
      " easiest": 9113,
      "Hence,\n\\[": 9114,
      " Beat": 9115,
      " Geor": 9116,
      "$\n\n$": 9117,
      " symmetric": 9118,
      " reverse": 9119,
      "ublicans": 9120,
      " palindromes": 9121,
      "{tabular}": 9122,
      " socks,": 9123,
      " saturday": 9124,
      " ensure": 9125,
      " strength": 9126,
      " oxygen": 9127,
      "/t": 9128,
      "^^": 9129,
      "f(x": 9130,
      "ienc": 9131,
      "mar": 9132,
      "oeb": 9133,
      "pon": 9134,
      " tu": 9135,
      "ergy": 9136,
      " bik": 9137,
      " pins": 9138,
      " piles": 9139,
      " please": 9140,
      " toilet": 9141,
      " -a": 9142,
      " ration": 9143,
      " ko": 9144,
      ");\nE": 9145,
      " August": 9146,
      " church": 9147,
      " year:": 9148,
      "aret": 9149,
      " one.": 9150,
      " jam": 9151,
      " plain": 9152,
      " feather": 9153,
      " clay": 9154,
      "ocad": 9155,
      " opt": 9156,
      " Day": 9157,
      "force": 9158,
      " z)": 9159,
      ")$\n$": 9160,
      " lesser": 9161,
      " broad": 9162,
      " Ron": 9163,
      " Nove": 9164,
      "{align*}so": 9165,
      " pars": 9166,
      " partner": 9167,
      "}}}": 9168,
      " $x$-coordinates": 9169,
      "$.\nFor": 9170,
      "{a_": 9171,
      " off.": 9172,
      " veg": 9173,
      " before.": 9174,
      " someone": 9175,
      " Then\n": 9176,
      "ah's": 9177,
      "Arrows": 9178,
      " milliped": 9179,
      " avocad": 9180,
      " planes": 9181,
      " sundays": 9182,
      " have:\n$X": 9183,
      " signed": 9184,
      ",S);\nlabel(\"$": 9185,
      " shipment": 9186,
      " $BC=": 9187,
      " rotten": 9188,
      " rotate(": 9189,
      " Sara": 9190,
      "}{n}": 9191,
      " weekend.": 9192,
      " broker": 9193,
      " daughters": 9194,
      "*pi/": 9195,
      " promot": 9196,
      " boundary": 9197,
      " Angela": 9198,
      " stereo": 9199,
      " rearrange": 9200,
      " railway": 9201,
      " logarithm": 9202,
      "{lcm": 9203,
      " iv": 9204,
      "+.": 9205,
      "-x)": 9206,
      "a=": 9207,
      "cq": 9208,
      "father": 9209,
      "go": 9210,
      "k}": 9211,
      "wice": 9212,
      "z)$": 9213,
      " aunt": 9214,
      "inations": 9215,
      "ered": 9216,
      " sar": 9217,
      " scholars": 9218,
      " $I": 9219,
      " mind": 9220,
      " mats": 9221,
      " mobile": 9222,
      " fisher": 9223,
      "leen": 9224,
      " national": 9225,
      "icy": 9226,
      "berto": 9227,
      "uty": 9228,
      " soy": 9229,
[...]
